measure
developments
##tani
cornerstone
protecting
##ois
yer
independent
mma
favors
contend
musical
##re
prompt
castillo
deng
garth
storms
knew
vacancy
jewels
mohan
kawasaki
[unused854]
thrilling
ム
howie
punch
edouard
##vill
brewery
versus
beverly
glazed
countries
##事
workplace
sterile
₍
establishing
occupied
modules
comfort
sha
keeps
1662
ρ
mechanical
solomon
unlawful
blend
##cast
##proof
siemens
##het
attacked
stud
nervous
downhill
turned
directive
convicts
[unused805]
##け
joey
truce
overtook
aviv
essex
85
tissue
manor
visits
##rb
##hardt
campaigning
burton
阝
steep
[unused141]
airfields
kidd
alistair
chandra
lavish
##hood
judges
free
applies
##kla
puddle
ebook
astros
yellowstone
rook
##ability
##eras
’
##ini
421
sunrise
##ook
irvine
##x
retaining
softened
[unused96]
andy
zones
exempt
[unused604]
nailed
1823
sub
days
##lellan
##β
whatsoever
viewpoint
harta
ballads
dh
shirley
mvp
watches
##kia
[unused861]
searched
##smith
mandal
##ᄉ
itself
oriented
tablets
wallis
##iensis
##ack
testing
spread
[unused786]
mississippi
stacey
served
pursuit
painter
##ons
1866
jiang
violin
##hiti
##tula
##zko
##⁰
remote
implementation
hairs
boards
holes
sessions
amara
##urity
orr
boiling
ochreous
rarely
duchy
##ag
mari
paramount
[unused599]
considers
##hab
##using
weaker
cornell
marlins
kitchener
beach
mistake
indonesia
##son
limit
լ
orchards
connects
vt
takeoff
mccann
promoter
calculating
enforcing
special
lids
taken
##factory
normal
faith
intent
##dia
rita
differentiation
##≈
simplified
local
detail
them
##play
tad
unearthed
leaping
defective
anguish
fuel
purple
##bro
draught
venezuelan
constantly
consoles
dutton
figured
alexandria
450
linden
1782
copa
genus
attracted
phases
reel
##gata
feeling
bulb
entourage
newfound
draw
follows
illegal
adult
fated
circuit
##iable
price
creed
[unused397]
adi
##⟩
dinah
psychologists
[unused267]
infantry
க
hurry
operatic
##chenko
concessions
arsenal
shaw
lust
athena
authentic
fairchild
hardened
turk
pe
drainage
vampire
triassic
ₙ
##nate
west
##ood
1765
##ris
##ches
##bh
biking
cellular
##fb
##ges
municipality
ariel
820
imperative
exclusive
textbooks
hoped
gora
boxed
tease
##禾
mans
cartridges
18
##⁄₄
##ᅢ
37
promotions
##rzburg
firmly
airport
contraction
anchorage
salvage
etienne
exist
connect
э
corruption
annette
##ᵐ
passionate
##qi
destroy
doorbell
editions
avoid
extraordinary
animation
##j
implication
switzerland
burnett
determined
learnt
disability
##thing
colonists
invention
##fall
owning
edited
christchurch
##ɬ
citadel
sale
manned
vaccine
ancestor
liturgical
##athy
indicted
holidays
fis
entities
##wed
telugu
##cci
welded
guerrilla
similar
ark
##llus
218
corresponds
whitehead
##ential
blaze
generator
##ण
planets
trees
tip
hurled
##isms
cried
##oris
र
rory
penguins
ハ
##ape
##rder
peaked
pads
extinct
##aton
straightening
[unused846]
##rst
thistle
[unused201]
114
1733
occupy
faa
scaled
migrated
[unused87]
##ied
##ways
quezon
wrapped
concern
sandra
troops
[unused390]
quarters
controlling
chapel
##ify
ラ
mauritius
##iel
##ps
##c
personally
##cts
kinase
##lion
##com
scanner
preparation
jaipur
profoundly
verandah
[unused320]
elemental
james
nodes
raging
perceive
hopkins
throttle
slavery
colorful
proportional
finer
websites
comets
joanne
193
rotary
melt
##lby
miller
baptist
হ
fatalities
##uous
growls
##edging
crab
rowe
randolph
[unused359]
nassau
footprint
न
accommodations
tia
##nick
##sho
tortured
ہ
viktor
##nier
violate
wiring
[unused399]
[unused809]
##ast
practice
informal
##baum
drummond
gorman
wrist
tournaments
resembled
##any
##imus
aye
[unused235]
modernism
##ric
secured
brat
##ב
[unused889]
95
##k
madman
bjp
mansfield
apr
night
##〈
harlow
oslo
pushing
little
art
armed
mars
administrator
##ators
च
##↔
##bid
workshops
##scope
performers
sticking
1920
4000
operation
retreat
jokes
files
##deck
saddle
##makers
racetrack
spices
##use
き
##rd
never
adverse
schwartz
utilizes
meets
groceries
boo
neal
ran
filipino
securities
jerk
rodeo
hispanic
disappointment
raju
erected
implement
fate
flopped
nh
interview
hunted
guangdong
##pio
eastern
vote
##inski
ა
horne
enthusiastic
##rso
mathematicians
flower
appreciation
hasan
##pathic
##ף
called
kneeling
staffordshire
newmarket
##տ
recurring
impatiently
##bolt
chloride
##blood
digest
humiliating
##osed
banged
suggest
costing
titanic
footsteps
[unused513]
sax
five
twilight
silky
remarried
[unused44]
ಾ
rica
privatization
enoch
##urrent
##ne
talon
<
##ius
[unused49]
handball
##heard
disagreed
##ivating
paced
density
garbage
malawi
mangrove
initiative
cousin
princeton
व
##cey
nike
engagement
chassis
##oso
[unused163]
horsepower
suspects
##†
miguel
funk
##usa
plane
269
##rasia
invaded
necklace
nickname
dish
radioactive
disruption
apologies
luc
pleading
ण
wrongly
startup
wainwright
timeless
##ble
心
111
tapestry
[unused101]
roads
##ru
yet
podium
##try
exploited
mrs
installing
##hid
##学
wesley
thorpe
adding
provisions
remake
banned
[unused380]
##en
chi
quarterback
atheist
ᅭ
cf
[unused77]
##berg
##bed
cult
sato
patch
thousand
wagner
plains
lied
bra
museums
##evsky
、
opposed
interact
##di
whip
flux
wakes
##rg
fine
##社
cbn
quest
シ
pressing
prohibited
whispering
kali
guo
helplessly
grey
tiffany
crowley
freshmen
‿
trace
cornerback
##nor
mirza
inserted
2a
garfield
ˈ
sneakers
charitable
efficient
cdp
se
recordings
motto
##sta
seconds
##world
##oma
fitting
venice
earle
antibody
##ario
facilitating
rely
methane
nhl
heal
bulk
societies
##cend
trunk
fort
##flies
gaming
altitudes
alterations
shells
qb
##athan
##ல
lev
##rized
##sc
##get
retirement
[unused515]
cherry
##qa
##llin
®
archaic
meg
##lation
pia
remembers
survive
bmw
##マ
##ale
inuit
spins
dunkirk
emphasizing
₂
welsh
##rn
aired
pizza
bel
kilometer
##rco
##ung
security
ngo
##sche
##lty
entity
##4
##iano
##tal
noteworthy
##igh
tolerate
##land
coastline
talmud
mina
audit
[unused251]
eye
面
de
designated
sponsor
flanks
comedy
petals
vanderbilt
students
unspecified
ɯ
dorsey
##yck
##ನ
##里
communal
##鈴
laptop
bombardier
performer
grammy
##eva
##away
##sso
violation
##duk
restricting
##wai
=
sherwood
##gist
islanders
##ticus
##ingen
##zzling
telegram
descends
graduates
syn
lobe
##offs
[unused849]
effectively
greenberg
##מ
[unused349]
killing
evaluation
##hine
batch
nipple
ь
vocals
vibration
steamer
kingdoms
sage
scribe
archdiocese
##rgos
1609
armando
##nz
campaigned
ɬ
##hak
closing
archery
##李
[unused821]
decatur
severe
apache
themselves
shades
##bbe
[unused293]
bone
restrictions
if
backwards
##rting
morocco
お
hercules
cases
amongst
households
marco
dismiss
generated
python
tori
circle
wikipedia
affection
wexford
talked
donegal
281
dam
integrity
dominic
##zzled
79
portrayed
monitored
dragon
competitive
##leader
quote
[unused738]
nowhere
playfully
mumbai
mathews
inter
め
sullivan
rewarded
captives
delgado
[unused232]
pair
sparse
##rock
indus
apparatus
bastard
define
łodz
##anus
climatic
##ctors
escorts
guitarist
hem
surpassing
pounded
enforced
rooney
recreated
ambiguous
duc
agitation
privileged
##ela
convened
1650
creating
apartments
##tain
[unused162]
counterattack
harmonies
period
idiot
voivodeship
everest
vaudeville
##ant
detected
reader
skulls
sydney
academia
browns
河
springfield
scientists
1850
billboard
phylogenetic
##cera
whipped
aggressive
cruelty
keating
jewelry
##laid
[unused116]
herbal
severely
believed
##pse
[unused42]
cities
stroked
##yya
##ivism
undertook
intelligent
liege
bloom
[unused33]
scroll
##zzle
hannover
##堂
##eum
sufi
[unused633]
##wo
mcdowell
##urable
zeke
susan
##ans
were
mason
##ogan
capable
perhaps
##van
[unused190]
admiral
direct
knees
marilyn
hitter
##yson
robson
##unk
shouldn
##cating
pharmaceuticals
astonishing
nash
founded
occupation
borne
toilets
orderly
##pm
##my
chilly
1826
spencer
sulfate
outline
tweed
##sco
##ks
19th
tribal
exercised
bullock
publisher
##let
retail
tennis
fda
linear
might
chair
ruining
##asse
spirituality
[unused924]
metabolic
momentum
rosary
[unused487]
##ʸ
paranoia
dad
##unced
sims
morris
atoll
newcastle
echoed
さ
hectare
arithmetic
flanked
ars
##火
darkly
[unused362]
##ours
canoe
ј
740
##rzy
depending
eliza
beth
gong
expression
##的
wallet
pillows
hadn
[unused197]
##fields
salford
ripley
mayhem
defended
##lls
denver
australia
##orno
note
underworld
338
raised
therefore
versatile
##stov
##dd
surrounded
scalp
ว
moon
moshe
donetsk
##ase
repeats
steelers
楊
rally
struck
##rrell
1689
repay
bowen
bus
hind
boxers
painfully
targeted
none
gershwin
[unused453]
structured
fabrication
transfers
yuan
quartermaster
239
cornwall
indication
ely
permits
52
innate
attract
bounds
acquitted
utilize
##ك
banks
##nea
accent
ithaca
scrub
մ
##wil
##lewood
scratched
apartment
##ston
lungs
##eers
honors
transitions
character
[unused721]
hardest
innovations
voodoo
senate
cramped
featuring
vial
##eld
lacking
utilized
##դ
attendees
comprised
##uve
united
¶
worry
canyon
hurricanes
embedded
1829
##nington
##ₑ
##oshi
定
##mouth
acquired
forks
filthy
staple
justice
fit
convention
anatolia
##se
bin
1863
##work
##ema
jerking
gives
·
aspiring
propped
flat
##tic
##nce
##թ
]
מ
2000s
buddhism
leverage
commuted
##ney
phone
bishopric
150
lime
##ante
##ggio
squared
malaya
referenced
##outs
torres
am
toro
crust
##belle
##onic
tying
##ع
##ml
nicaragua
##lessly
frankish
linked
overhead
canvas
rash
keller
devil
barack
##gam
carlson
hangar
apparently
clary
ollie
##æ
viet
moved
pressured
cafe
##feng
[unused906]
audi
compensated
scar
sweets
temporary
##rrigan
histories
shards
persecuted
##ম
burying
factor
##sy
shrink
realizing
1792
wandering
covenant
eun
plenty
wealthy
temporal
愛
##rrier
russo
##its
101
##ert
##leigh
curling
petrol
childbirth
mahmoud
birthday
geometric
nomadic
113
snapping
##plify
rivals
she
blur
oman
ringo
own
usage
rutland
[unused126]
infinity
cough
yusuf
##balance
rejection
##word
rapid
##花
circuits
sciences
du
paso
redesignated
##pace
northward
1869
bleak
ত
cognition
uta
##ifying
switches
modification
disadvantage
c
attending
leipzig
##kel
attend
disgusted
francais
coast
bitterness
hotspur
dem
grenada
hate
speaks
creep
##mith
[unused225]
excluding
offset
cloak
fortification
plucked
network
hq
167
priorities
clube
mentoring
[unused93]
lars
scrubbed
calvin
##พ
[unused393]
brake
beasts
##س
romanized
linguistic
##centric
[unused269]
1809
nmi
princely
cereal
[unused435]
evans
eastwood
##tone
treaty
misconduct
victories
##md
everett
oneself
engineering
hu
joining
poets
tailed
expose
members
copy
clung
narrative
##ads
classics
白
author
##ites
##nge
bewildered
humorous
mercy
teenagers
dail
argent
##onzo
terrible
scraped
[unused535]
##ym
pulled
carson
elections
offspring
##liche
##skie
##rda
auschwitz
abolitionist
##{
miniature
sevens
##cape
##ヒ
condemnation
ju
lacrosse
bowled
maui
crow
prosperous
authority
##ouring
enables
indicated
supplies
5th
freeway
mora
recovering
cas
pi
liaison
invaders
sermon
scramble
bipolar
openings
##erving
distinctly
yarn
[unused168]
youth
artificial
sack
anthony
fairy
30
##scoe
reminding
cores
##metric
eh
staying
happier
stereo
ponytail
keep
[unused660]
drowning
wrestle
##い
adventurous
rohan
cattle
cougars
##加
jurisdiction
##ywood
athenian
##uge
fail
nell
figure
packs
##sos
landslide
1626
tall
lighter
populated
was
recounted
notably
triumphant
pont
##g
philanthropist
francs
arc
blinking
[unused428]
slick
sun
portals
ins
turns
1716
shia
dilemma
∈
##zel
piece
im
decorations
##dal
murdered
miner
greco
##ₛ
puff
intimate
simplest
bound
powder
pulls
tens
##now
##њ
##isches
[unused437]
explode
searches
##fp
fourier
neolithic
trailing
[unused261]
kaye
memorable
enter
jakarta
‖
dex
≈
diamonds
cricket
speechless
casting
kid
scholarships
blinded
threatens
expansive
smoking
sovereign
fuller
nero
rotor
seo
consecration
favor
campos
##cote
[unused594]
near
##isch
nobel
regulating
industrialist
freighter
goin
wealthiest
supervised
extends
crank
[unused534]
affairs
daly
google
sphere
province
sustaining
brute
##道
redesign
ھ
##sburg
portsmouth
##hand
cooks
meng
##oon
attach
struggles
treacherous
##psis
hide
expired
down
marley
dowager
payne
張
mates
railway
sahib
pere
waste
furniture
praised
chiefly
at
spells
emilio
peppers
##yuan
farmers
timeline
bloody
listings
空
loyola
yearning
##tma
##uchi
northumberland
piston
output
##oud
[unused692]
armament
1908
##tically
exclaimed
malaysian
##tter
premise
painting
phosphate
danny
basha
sebastien
cottage
##gles
fever
goldberg
abducted
salty
[unused870]
ignatius
emmanuel
stab
strung
baccalaureate
poke
ellis
french
##ist
essay
sparrow
##fleet
##para
sloan
methods
negotiated
databases
##ologist
analysis
terminus
hutton
ª
spy
identities
##estra
1751
starboard
reagan
educational
fontaine
##～
georgetown
dong
##zog
trap
jelly
craven
population
jimmie
##ssi
tier
italians
department
match
heath
monica
fluorescent
cafes
abusive
##65
pulpit
vh1
##cle
stephan
berman
inspections
##)
defined
pale
flowing
ন
fist
##nstein
montpellier
taller
picked
looting
amherst
umm
collisions
softball
##fles
successor
protagonists
清
painful
attacker
##镇
usable
elaborated
¾
1714
manufactured
glossy
stairway
cylinders
##幸
##suka
##gent
flame
church
einstein
polynomials
nordic
byte
proposition
##cellular
oversight
friedman
denny
##tage
lynch
jen
engineered
diego
altogether
favorites
##space
initials
##rdan
recruited
resorts
accurate
aching
collaborations
siege
botanical
museum
twist
hash
coveted
wisdom
nicolas
longtime
frail
trumpets
##atin
business
billy
##outh
accuse
marx
##lak
##wa
##մ
brink
##fia
favourites
ƒ
seems
clicks
##№
separating
υ
won
breathe
##zai
india
910
anatomical
kilograms
jaguars
crowns
quiver
granite
##may
directed
¥
rosewood
##ros
league
midland
boys
kn
[unused764]
pilot
accelerating
receipts
anomaly
sewing
##cap
[unused268]
failure
exclusion
north
mckenzie
benefited
##в
crippled
ages
ursula
tightened
khalifa
fleeting
refueling
##⁺
##rked
ventured
nuclei
##⅔
fran
rising
prescription
change
nikolay
##sts
situated
語
odor
stinging
##lge
displayed
database
林
[unused214]
respond
##ه
takeover
odi
##sson
maritime
nucleus
gathered
soloists
##լ
bosnia
underwood
jesus
nevada
perpetrators
caused
archive
blasted
furnished
adrian
cavaliers
spartan
##ancy
二
complex
ও
jocelyn
eleventh
disqualified
宗
sexuality
spotting
20
essence
##ind
find
arrangement
##take
debating
tragedy
packet
berlin
rte
人
haven
[unused744]
1885
marched
taxonomic
##hit
rhineland
penthouse
composer
##itation
groaned
##ュ
cabin
breathing
erie
favoured
frequently
populous
##ische
##rified
##urian
virus
1871
hypnotic
cycle
bundles
[unused985]
establishment
##₤
draft
##rce
katz
ნ
方
cosmetic
itv
underground
я
calculations
climbs
alexis
tablet
stared
##iculate
hardship
##ately
thermal
parkinson
entrepreneurship
##rus
ワ
blanket
joachim
##ite
[unused27]
deep
twitch
globalization
ʸ
options
halls
yamaha
enzo
city
45th
damian
uncommon
sad
clad
##hana
vernacular
mayfield
think
monsieur
horticultural
134
belize
₱
deco
[unused236]
sec
850
##ང
shallow
obtaining
house
[unused61]
emily
⁺
telescope
vastly
gulf
routine
superstructure
у
include
sandwiches
lake
lobbied
থ
casinos
##ear
much
##rwin
##mony
maitland
corresponded
[unused389]
clouded
miocene
strips
distracted
25
scars
##阝
##meric
sending
accurately
flicking
##nical
charlie
750
get
##る
absent
patricia
##adia
scores
anya
bosnian
sheppard
expressive
russians
jana
mouse
##lm
creeping
##pha
lilith
anglia
merton
meet
##vron
compensation
liable
typed
underside
temporarily
##sai
##आ
180
layla
fir
gamble
##loe
travers
economy
##iso
organizes
1820
##ivist
bruce
##ials
tack
##eu
fest
pieter
grooves
macedonian
bring
recognizing
##hawk
destination
provoked
eugen
din
##nte
brien
column
##iface
classified
##ogist
uncomfortably
##ments
1832
anger
characterised
composition
compounds
inspiration
splashed
emigrated
asthma
christ
breach
returns
2011
horseback
##gawa
##umber
notch
displays
lynne
##raph
[unused656]
##ffy
wise
estonian
must
appreciate
globe
culturally
efficiently
sporting
warner
peeled
vitro
[unused411]
vicky
duval
##章
discussions
1723
stained
##leen
ে
joker
antonia
catchment
guild
##watch
zoology
apologetic
##cial
fisheries
##cter
combine
dickson
alvaro
lodges
hysteria
dispatched
europe
amazement
gymnasium
factual
panzer
risk
amanda
territory
##♭
binding
passion
applicants
renew
fibre
stripes
method
[unused246]
productivity
gasoline
##itia
tracts
mallory
waterways
sue
[unused751]
unitary
intersecting
##anial
##₅
crumbling
advisory
employer
consulate
evenly
##秀
frontal
breakout
bingham
##titled
##ths
[unused475]
mouths
##kit
tully
landed
bolivar
##vitt
minor
##oese
aeronautics
佐
##sters
wins
uh
reassure
heartland
tavi
mary
thirds
sunken
idea
functioning
resistance
finale
dormitory
seeking
meals
##子
##sia
tenor
##vre
membrane
cruisers
prevailed
its
swirl
moons
expenses
marshal
disappearing
ח
gleamed
ahmad
condemned
rover
rating
breaks
pushed
##von
saigon
wilhelm
##4th
asylum
provocative
clever
leung
cap
cruiser
charting
georgie
##―
hospice
blaming
dedication
##政
ignorance
therapy
majesty
audition
titanium
##±
ignorant
##cing
assured
darwin
glee
##face
reptiles
trillion
##ט
[unused778]
threshold
区
##or
[unused676]
marxist
ˢ
trailers
definition
##ht
blocking
[unused63]
##」
1652
angeles
pay
##か
[unused885]
fourth
kits
[unused381]
metal
padma
outcome
karen
commenting
favored
af
transmissions
##hu
date
##ed
survivors
writhing
ballroom
♦
venerable
##ginal
wwf
tubular
emerged
gilbert
woodlands
richly
replaced
crescent
prefecture
medicines
##rcle
harden
unicef
julio
wastewater
freeman
orgasm
mingled
presenting
exploits
##ז
tucked
exiles
daylight
azores
esther
raced
dispatch
elegance
##llen
syllable
type
‘
rounds
hermitage
claims
rushed
tracy
defenses
soothing
ض
properly
##hur
illusions
##lb
1667
macleod
jed
royale
fairfield
gloss
something
##pop
classifications
translation
darmstadt
courier
sucker
trent
third
singer
1955
elvis
jubilee
##enne
dei
163
largely
[unused51]
retailers
##tablished
billings
qualifications
##gus
stamped
catalina
detainees
threat
voyages
which
shame
northernmost
ultraviolet
kill
gui
grown
strap
sleek
##ques
prefect
ares
87
marking
##uting
##usions
victim
bucharest
##quel
sheds
karel
eldest
condor
1739
prime
observers
compose
moody
镇
discusses
¢
frustration
handgun
nik
[unused697]
mel
##ord
relay
spun
munitions
##inn
365
##thorpe
##uls
typhoon
##wyn
quarterfinals
##jima
vengeance
commonplace
[unused585]
##「
##帝
ts
path
##bution
stabilization
mayors
mls
hazard
changed
##egan
##»
posing
48
cuffs
swell
arterial
nightly
##hering
caress
thoroughbred
mobile
ӏ
gibson
daemon
##cr
##•
sergei
story
ismail
mechanic
[unused15]
brig
harvest
pitching
nielsen
##tary
##lins
persist
charlemagne
candles
loses
awoke
[unused334]
##ates
##res
cole
##द
民
##باد
demonstrated
##mme
[unused765]
led
armstrong
pensions
turkic
##ilde
ravens
mortimer
##ake
pursuits
casualties
bandwidth
##ph
providers
##ད
ₐ
drawer
##gna
brian
amid
hardcover
declining
routed
∪
hamburger
##ャ
|
##sari
contents
hyper
##tv
##erson
stems
discovers
deposited
nile
algerian
##tha
practically
pandora
loved
sho
ح
cent
յ
bestseller
##yad
bets
soils
##cina
##onate
##ive
bu
cinderella
comic
isabel
cyprus
spouse
##後
prague
forget
exhaustion
richard
transformed
##シ
talks
applying
thugs
firms
antilles
contrary
equipped
internet
plasma
therese
converting
mo
isaac
attaining
shipped
sailing
celebrate
328
assessment
lithuania
wonders
202
gallagher
emerges
comedic
und
island
dot
effect
##kou
部
hara
nw
politicians
protocols
knee
miracles
verdi
soviets
bursts
##沢
##rted
taxpayers
良
clothing
##zza
clemson
king
##lass
symphonies
using
raiding
challenging
koreans
aged
flea
revolver
appalled
cayman
solely
before
lamps
nationals
sneaking
develops
##rts
##ɛ
washed
interspersed
wiltshire
##ight
intricate
truths
litres
ordination
mcmillan
##≡
##ooping
##uri
rutherford
temples
intra
##scan
uploaded
##lika
[unused852]
perception
suggestions
originally
##lto
73
swallow
##ff
elsa
##ogo
fencing
annoyed
rockefeller
emir
guardians
[unused755]
##ually
rocking
brushed
##dad
##hd
archives
prophecy
experiences
pedal
halted
prizes
certainty
cigar
polite
found
元
military
zur
##dded
1621
champ
tow
##dles
exemplified
cad
bravo
pegasus
dar
bees
maple
iain
idle
ave
response
dispute
brownish
lauderdale
playoffs
probing
simi
crossbow
mutations
sox
##世
##hita
ashore
wanderers
breeds
youths
##den
##case
##jak
1761
consultants
##erate
##igraphy
##ilis
chemical
asha
[unused939]
energy
kisses
towel
finishing
apologized
paperwork
soft
##ies
cedric
##ton
beings
puerto
humane
improve
15th
[unused618]
intentionally
anarchy
marion
##dit
denies
commencing
seam
supervisors
whore
##hetic
hardware
usl
mic
##疒
##si
abraham
ನ
##zily
instrumental
1850s
##0
ག
steven
greta
market
neglected
scientific
##cine
very
nathan
watershed
##hearted
##qvist
enhancement
contender
rupert
deploy
fascism
stryker
conclusions
tucking
##forms
arcadia
barker
[unused626]
achilles
onstage
barrio
##^
vine
##yna
thank
requests
henry
wit
packed
dyke
thoughts
##dies
warwick
comfortably
attempts
os
happens
depart
relax
magnitude
tensor
長
specimens
regained
paying
buren
symptoms
avail
།
⋅
whereby
##aster
relegation
##ɯ
tanks
tuscany
##dron
##aria
truck
1797
gang
absolutely
hospitals
pillar
manuel
are
##15
karate
distorted
natal
##oia
[unused539]
pest
ء
bartlett
mg
##cula
scented
schoolhouse
lc
nobles
verde
thoughtfully
##郎
##edes
##vara
hyun
cannabis
fetch
additional
bangalore
arson
rana
史
unnoticed
hospitality
##eurs
registering
specification
eighth
##iff
##cis
charts
arden
interfered
booker
head
absorbing
groom
prequel
fronted
##⁄
[unused541]
bobbie
æ
1713
rode
rod
slung
kaitlyn
declare
miss
tie
##ouse
##rrow
moffat
##་
distant
anti
billie
##ias
noodles
ferrara
generate
##bing
##eil
methodist
о
##ே
##≤
十
stanley
logs
democrats
brunette
regiments
numbering
film
concacaf
tor
##স
1800
ile
firing
##yoshi
1960
shows
senator
##gai
replacement
strikes
nevertheless
excellence
finishes
##erty
lex
##འ
easton
peas
[unused901]
sour
work
calls
outraged
autobiography
masculine
exits
kyushu
viewers
allocated
heroes
lutheran
stuffed
museo
demolition
##kell
##row
shifting
##oxide
sway
04
[unused198]
watkins
indicate
##more
##დ
##bold
endeavors
subcommittee
terrestrial
fruit
##h
solemn
launch
exactly
evening
[unused571]
[unused935]
travis
##נ
##aia
plato
1960s
bae
shortstop
corridor
prefer
emblem
##grove
[unused593]
aligned
1659
[unused418]
##isi
ambassadors
phillips
close
otter
calvert
##口
151
inducing
⁸
monument
newcomers
ambassador
cm
原
ravi
[unused691]
creates
experimentation
distance
borrow
fireplace
pounding
chinese
carnage
crusade
waterford
upgraded
taboo
greenish
warp
crambidae
boy
wednesday
1940
above
trainer
myself
influenced
##ナ
##ly
weeds
lookout
wig
potion
07
credit
grandchildren
robbery
profitable
occurs
discs
bully
##gl
tasha
searing
##dome
ᵒ
stories
cherokee
[unused584]
##ette
comune
seville
##tness
millions
consistently
seasoned
fours
costume
startled
wardrobe
##cased
misty
buck
1828
replacements
##uw
thorn
appear
173
›
√
ordnance
positioning
premises
accustomed
popping
corporations
upstream
dortmund
vol
##itor
landau
metals
parties
multimedia
landowner
subcontinent
propellers
intention
entrance
60s
##cala
redding
beds
corinne
##tist
gesellschaft
##本
assumed
commuter
ou
½
glue
##川
lured
pa
cunningham
##sur
##ス
rainfall
##le
friendship
gum
anyone
constitutional
welles
serene
giving
margaret
cork
##vary
casket
refurbished
begging
ₖ
##oteric
bounded
increasing
[unused956]
treasures
shan
ipa
general
color
cisco
##mming
defected
appealed
##gin
eternity
##mx
##aldi
crunch
cents
ngc
luzon
monograph
decision
bonnie
opposing
significant
predicting
##ம
yi
2019
christy
sweden
kb
coarse
[unused730]
1936
pausing
##¥
pastry
designer
##vat
medal
社
spontaneously
robb
replace
higher
climbing
canceled
overturned
tito
[unused460]
lineage
corrections
tilting
caution
venus
sms
hooper
wynn
worth
lawyer
ж
budge
terrifying
attack
thus
##lberg
raion
superliga
backyard
emotion
seeks
projection
replica
sagged
muriel
connected
aimed
ballots
intercontinental
ranger
kobe
sparhawk
lenses
healthy
resting
attacks
purse
piss
##¼
barclay
plate
teamed
traction
cadet
lucinda
arrived
##分
huh
reflect
capabilities
amount
valleys
##drich
canons
urging
[unused757]
consultancy
exact
prototype
##ayan
cr
have
introduction
deposits
delighted
##kken
sung
mater
##კ
##eni
season
ok
gunther
flavour
[unused120]
[unused813]
cuisine
freshwater
macau
discharge
tee
body
enclosure
##54
##り
kristin
zhao
roy
heights
desirable
rare
perch
longed
haggard
bulldog
ducks
opted
##isman
sins
##gen
slowing
presses
rape
provinces
sneak
faction
manufacturers
##dog
##ones
501
40th
##minster
##agne
[unused546]
proton
forms
jolt
##eh
inherently
##gnant
honneur
sheffield
beak
deal
argued
cinematographer
poison
仁
styled
hangul
ʃ
union
scratching
sliding
##tila
obstacles
[unused829]
reservations
briggs
jane
supper
prohibiting
mormon
##カ
occur
13
doyle
lure
commitment
teams
##mage
debuts
guthrie
##お
香
balls
1791
vocalist
meters
claw
considerable
angus
liar
##ho
squares
fiance
##hear
##ի
understanding
tangible
##yp
ণ
mobility
boxing
comment
[unused590]
quinn
cfl
[unused621]
1839
facial
apostles
odd
screw
##ₖ
khorasan
bazaar
unwanted
constructions
immature
cathedral
tube
inaugural
lennon
patriotic
##forth
zimmerman
lots
[unused510]
1830s
conservative
ceremonial
acknowledge
eater
danish
[unused971]
rankings
hawkins
gallery
gavin
differently
singular
polls
cis
##nent
japan
##rod
##rly
weaponry
##kei
forsyth
recapture
事
bases
ɫ
1991
aires
silent
alzheimer
finger
quakers
##新
[unused830]
magnolia
callie
daytime
satisfactory
fundamentally
unmistakable
[unused237]
##ana
hugo
hari
[unused425]
##lese
##tia
##foil
populations
calming
イ
crewe
wine
personalities
taxon
explosion
rented
hassan
corporal
snarled
ʊ
habitats
angela
nets
blessed
bisexual
345
⁹
skyscraper
outbreak
inspected
subsidy
pauses
organism
fling
congratulations
brasil
##christ
169
##松
[unused463]
[unused796]
[unused448]
xvi
captain
marquis
chevalier
[unused785]
ibrahim
vulnerable
##cured
thee
##uration
##laya
arun
##oms
sinks
sore
futuristic
supplementary
wedding
afghanistan
##ith
sobs
chores
##rath
fare
381
curly
##orio
sonia
[unused196]
cot
street
shouldered
lance
295
deputy
ale
cooke
increase
ono
gaping
##jm
288
hermann
humanity
realising
ɨ
auction
rebound
brant
##將
pinning
brenda
championship
spawn
charms
ride
overcome
fading
roland
attraction
##rne
##lift
versions
yuki
##lington
1653
closure
infected
nationalism
mongolian
showed
poe
brows
##ю
##thus
##hers
##mate
amalgamation
una
report
amazon
tricks
##江
feels
renamed
##aly
academic
tibetan
upstairs
suppression
kindly
suit
growled
primate
psychic
pasadena
##holding
haste
marc
csa
polish
##jing
funds
songwriters
##scent
pillow
##广
bobo
paste
impromptu
heard
washington
mascot
turkish
rocked
embassy
through
committees
voices
billing
大
[unused538]
banning
##itt
##dity
##enes
muscles
violating
1756
sy
patents
##runner
mess
##yte
##lena
##atable
craig
pump
revolutionary
restoring
routines
christensen
ʳ
lifting
dioxide
##rita
duties
1672
padres
publishing
virtue
jailed
this
comparatively
##adi
##kshi
wreck
turf
nerves
##tford
inhibition
horace
exiled
psalms
inducted
consonant
exceeds
brilliance
119
rowan
##կ
requirement
adults
punk
rey
##holes
domingo
bubba
##wy
ecumenical
##fold
trondheim
yell
resumed
1919
lists
eagle
##zle
##ography
aerodrome
turkey
scream
##zard
episodes
##ire
awake
lessons
myth
##gation
comet
devoid
forums
mercantile
solar
##ulus
##do
##arts
##ɴ
##rice
wraps
gil
[unused213]
？
gonzaga
[unused182]
croatian
deciding
##¶
忄
storytelling
defeats
adaptive
##graphic
##皇
maud
properties
合
anderson
dangerously
##⇒
eisenhower
tough
implementing
futile
furrowed
37th
sera
unrest
##hes
way
delegation
diagnostic
[unused158]
independents
##wr
gravel
hawks
nationwide
##sham
clutch
obligation
communism
vowed
##ishing
disposed
techno
regret
chaired
[unused118]
real
##screen
curses
sped
youthful
shop
traveller
facebook
angular
[unused6]
sturdy
exposed
beginnings
##yi
delight
juliet
salute
burnley
alsace
##polis
bash
candace
wo
lettering
[unused102]
pack
bracket
duane
decreed
ndp
skepticism
somber
##п
[unused983]
remembering
##cao
archers
##ล
uncertain
##hyllum
hallmark
ml
acclaimed
cuthbert
nikola
joan
supplied
workforce
italics
confirming
##krishna
##ս
supervisor
handkerchief
simeon
crimes
terrified
œ
aviation
asa
1886
pre
vaults
miranda
drop
frequent
subsidiary
##ி
internment
residents
dd
things
##ction
godfather
1855
carl
ceiling
segments
thessaloniki
dentistry
[unused314]
##heart
setting
sd
nail
外
##ntial
##tosis
arrogance
acknowledges
jewish
multiplayer
trapped
雄
dismounted
goldsmith
##pus
##castle
##li
emile
mentioning
bart
writer
statewide
collector
protected
flags
name
##weed
2nd
pearce
##ե
growing
priests
mitochondrial
representation
recorder
metabolism
vuelta
##mail
##er
amateur
##sko
flaming
spotted
nope
##insky
assam
salad
[unused17]
hinges
deteriorating
canine
median
##rist
usually
1967
gestured
##tium
interceptor
situ
##bula
bei
sometime
##nic
socks
##ease
falsely
oblast
##yt
affect
bowing
obsidian
##hausen
cornered
##kill
windy
analyses
tanaka
settlements
granny
parker
高
##r
procession
subset
##nza
expelled
pub
target
header
gladys
ich
##bach
dietrich
plc
spoke
wondering
university
1641
spoken
mk
residual
##bbing
intend
1741
##খ
echoing
1932
alexei
trough
##he
##inas
maternal
ˣ
notoriety
agile
##well
##hri
fashionable
[unused457]
melodies
gaulle
drained
designers
smoothing
##ふ
caucus
direction
dismissed
ked
deaths
barrage
revue
ioc
dunes
##ass
traveler
rotherham
nina
adjusted
hilton
shelley
forth
valiant
prank
yawned
deities
father
##ores
divinity
書
checked
cab
##helm
bell
##ignment
pts
த
fitness
goose
halo
##rricular
安
##free
announce
hurt
filed
siena
racehorse
##car
evacuate
[unused847]
##cha
eaton
foo
213
##islav
railroads
[unused330]
-
societe
spacious
beige
quite
dea
##mc
utility
chateau
mask
sloping
shortage
fame
##ther
1748
[unused620]
1842
shrugged
unfolded
moan
oil
executing
harcourt
গ
[unused569]
harlem
hoc
agree
investigated
viceroy
cleveland
resigning
refused
##vic
slim
inevitably
7
emmy
checks
chevrolet
vinyl
helix
invest
charters
customized
prevention
stan
howled
historian
heroism
ragged
expected
metadata
[unused717]
torpedo
dead
cinematography
gr
alex
mv
jurisprudence
spice
mana
traditionally
##zuka
##ned
cushions
[unused391]
val
jean
secondary
daniels
mechanisms
padua
creepy
caliphate
surprised
##oga
dinosaurs
patent
presumed
##দ
healed
##riz
persian
decisive
rye
proliferation
climax
lifetime
taluk
avatar
yielding
assaults
fraudulent
contractors
gotham
interim
เ
##hini
decimal
playhouse
qualify
conduct
restrain
39
ー
##inia
impending
[unused430]
edgar
sister
elevator
ezekiel
butcher
wave
ledge
configured
explorers
russian
1833
stride
dupont
richer
金
earnest
increasingly
gujarati
ul
grain
clenching
ev
realized
grades
£5
hammering
react
dissolution
uncles
closeness
scratches
crater
juarez
191
ra
bray
cesar
feeds
peculiar
mined
lately
##eca
##you
jewel
sherlock
ness
sara
pt
313
blending
alla
glowed
##⁴
relative
yankees
mainz
matters
##শ
##arney
##ator
communicate
980
upgrades
nexus
##øy
##lov
[unused896]
presumably
wil
year
##wley
stockholm
looming
ballad
##lich
##ylus
prakash
1929
##坂
stewart
announcing
и
recognizes
coa
chen
closes
motif
splits
weigh
##beau
manhattan
born
patrons
regards
##yx
jose
recalled
messing
dose
[unused553]
1812
nc
wood
insufficient
adjustments
sonar
pretend
african
vox
[unused413]
##date
paints
##udged
##tee
mandy
jaime
##iy
corners
turner
hertfordshire
farmhouse
##mous
##宀
##wen
sonny
nanjing
weekday
hearing
seek
chiefs
ministries
##chee
establishes
##oda
peacekeeping
bikini
[unused979]
1906
fantasy
moses
original
andes
automotive
drum
athlete
brewer
pepper
celeste
gdp
horrible
alcoholism
ultimate
rocket
une
reefs
homosexuality
##光
##iam
ت
austro
opus
ref
weakening
##trics
primitive
##jure
##trom
fished
on
##dridge
[unused720]
ira
ф
birch
##mmy
bradshaw
inquiries
anniversary
jeanne
jalan
貴
宀
marche
##tation
chemicals
camera
flexed
flights
simplicity
##bey
##tou
reacts
meditation
##sen
stretches
1580
temperate
dil
airways
advertisement
##alis
zhejiang
##ksha
##nish
awkward
piercing
queue
辶
ර
holstein
logan
pune
##nated
moans
strikeouts
glenn
##sus
mannheim
breaststroke
estimate
immortality
slender
telegraph
extreme
congregations
vines
remarkable
خ
punches
michelangelo
handel
colombian
het
labelled
##tray
ע
dixon
celia
cactus
supervise
formulas
organs
convince
doubles
relentless
resolved
‒
encouraging
barlow
tumbling
flashback
steadily
##psy
cache
cp
disappeared
assessed
shareholders
warships
instructional
murderers
distress
tre
##ango
medals
camille
##plication
improving
peoples
∘
humidity
##sonic
##fahan
reproduced
channels
jerusalem
clair
colourful
ち
brno
immigration
euroleague
emi
cheek
##ran
bedfordshire
believers
fairs
madly
##ψ
easing
florence
quarries
curate
infamous
chip
##ropriation
republican
##ₒ
##ħ
jurisdictions
kathy
sired
simulator
retrospective
freeze
andrei
hilda
association
##བ
attic
foil
others
talents
dispose
maryland
##ᆫ
improper
##zd
##fs
##gold
appeared
julien
ground
inadequate
μ
##¬
elisa
##sop
midfield
martinez
##missive
murderer
127
##zes
disorders
seats
barred
հ
officers
##cake
##ο
##rito
embraced
mcpherson
##ddin
patting
cards
##ium
##uity
archduke
connie
das
##uli
exchequer
##lled
polished
installed
26th
modeling
galaxies
##istic
contestants
gothenburg
oleg
##=
宮
richardson
refusing
##roving
upcoming
navigable
cardinals
rc
dismay
##tour
##eller
mantra
##zer
atrocities
utilizing
unstable
shear
evicted
abe
confirm
##grass
##court
plaintiff
271
est
norway
orchestras
spectroscopy
##omics
percentage
bends
wounding
tread
podcast
destroyer
door
his
##gau
1979
liechtenstein
・
code
noise
brawl
such
plantation
##hora
##wi
##lah
remotely
assistance
quantitative
nationalists
volley
##∪
tommy
##ain
hague
vaulted
##hett
loops
window
hasn
frames
cocoa
ventral
##原
##18
##ergy
whole
samantha
largest
resist
el
##paper
[unused565]
[unused888]
藤
steel
shadow
##mir
keel
obscene
weaver
nellie
[unused667]
suitable
crushed
sounds
internally
##f
criterion
claudio
balancing
##ggles
seeker
eyes
environmentally
malayalam
jason
mariners
##lux
thesis
pink
reset
loves
pulses
upgrade
fined
ingrid
##firmed
##naud
wary
[unused668]
braves
dave
cutting
breuning
rattle
##ד
cement
plumbing
##lard
ancestral
emission
##furt
forbade
##gly
sockets
ᄑ
tram
staples
rewards
victor
153
civilization
pronouns
##script
penetration
translators
prep
indies
##san
accommodate
##naire
abel
falcon
cowboy
##ige
prism
lineup
blessing
alexandre
##lay
madhya
aims
terraces
1717
conform
enzyme
comte
tallest
cakes
ascribed
enthusiasts
rhys
collin
##phic
##ated
か
dummy
backing
analysts
erwin
##mark
shaking
opera
jockey
uganda
##ve
assortment
##ller
insult
insurgents
##dial
palais
1847
erratic
fei
table
realms
advise
connecticut
reorganisation
f1
[unused127]
protesting
weekly
darling
西
1810
recession
criteria
nighttime
##δ
##գ
highlighting
forests
verity
budgets
mexico
##inian
atmosphere
ٹ
##gol
##board
leash
essentially
##ह
##sm
[unused57]
##astic
##mise
eggs
varying
##pipe
examining
##ision
##dick
dramas
clifford
nano
##地
emotional
employed
tata
##vio
leans
##rage
[unused76]
inlet
goddard
moss
2006
##coe
giorgio
acquaintance
specific
prosecuted
reorganized
ص
precise
pencil
##fest
amour
motorway
##yr
julian
[unused587]
athletics
understood
yourselves
ryan
勝
tempered
##lib
[unused146]
##atus
vulnerability
minors
##mite
##エ
##fus
##fect
[unused701]
q
refining
greenland
##chia
##houses
songwriter
tipping
collected
votes
referendum
245
stretched
shrewsbury
##oton
##bility
##ological
balfour
funeral
##立
freshman
dorothea
bob
practical
paving
[unused958]
wiped
biographical
insert
answered
[unused506]
voter
impacts
continual
##phila
carlos
expeditionary
lund
constabulary
trenton
honduras
ras
biting
flair
ahmedabad
##ʒ
rental
sl
soloist
willed
：
[unused710]
##lun
identical
temperament
attain
spray
##et
clocks
##ر
kincaid
ս
balthazar
christina
valerie
blackmail
##eia
kiss
infants
##ᄏ
fable
sharing
officer
barre
##inking
want
hungary
##ড
background
jolly
[unused923]
##gate
skirts
curl
bent
neo
shrine
sculptures
swollen
##楊
ث
kathryn
postdoctoral
kicking
draining
foremost
ants
vanish
may
purchase
tyne
genesis
shirts
fra
bethany
##iner
madness
rejects
rampage
##phy
initiation
helmets
syria
pmid
jerry
##ities
overthrow
demonstrate
五
everton
##ved
eds
##rek
narcotics
cia
temple
weiss
margarita
dogs
beaten
alyssa
alerted
pear
paterson
postage
##ー
innocent
צ
penal
lisbon
olaf
##ries
reuters
##inkles
##nds
shuffled
##yle
##cu
uci
nuts
football
mavericks
sweeps
##hema
fleming
victims
##eth
portland
death
otherwise
1951
##nig
ended
verlag
teacher
blogs
##kney
duly
##arm
allowed
figurative
resolve
wasting
天
celebrated
đ
ripping
protest
##stick
waltz
parry
judah
lexie
[unused663]
jersey
gaining
299
nor
purification
avalanche
striker
##udes
contemporary
prosecutor
ancestors
stood
risks
hacker
scale
summers
october
##pled
galaxy
blanca
qc
pants
frowns
hive
expressions
bassett
##ছ
##icle
finite
archipelago
thoughtful
##01
keen
to
donor
routledge
fictitious
purchased
function
cove
organising
arte
reopened
eel
blazing
##ffie
gathering
somalia
fluent
smack
ley
woven
applied
##°
bolt
slovak
村
##stadt
mentor
##cytes
livery
lai
[unused461]
firm
pie
motives
mcintosh
offenses
vincent
totally
twenty
##cs
dorset
##zman
##iter
##უ
##urities
[unused103]
malay
elliot
faded
fairies
accountant
freaking
insists
metropolis
echoes
future
##finger
##ahl
jumping
1763
1620
asking
further
##uni
juliana
zodiac
jumped
pool
dealer
portfolio
[unused276]
##tenberg
helena
fee
wartime
##chet
catalogue
relating
swamp
held
margot
crept
feasibility
##oslav
tensed
[unused47]
mach
[unused528]
##amps
valor
onward
gale
computing
smashed
##oth
smoothly
侍
dod
sequels
acceleration
fernandez
stabbed
##uaries
policies
friedrich
糹
triangular
##sons
counseling
soul
selects
morning
##woman
[unused902]
##ism
##boys
283
179
dog
##partisan
likewise
dia
ctv
kang
psychologist
geometridae
bulbs
benji
rooftop
admiralty
bathrooms
elton
1921
uneasy
busiest
rowland
海
sixties
making
加
##sum
1800s
inevitable
splitting
abd
remnants
event
paralympics
##₍
##∞
mccain
reciprocal
gradually
baxter
spike
strides
cop
imports
[unused835]
running
oaks
mix
moths
##uring
purchasing
zimbabwe
ribs
jamaica
##gged
runoff
spaniards
##hal
drain
gottfried
uncover
##ま
gram
drifted
ratings
combat
ro
stylistic
mouthful
##男
cosmic
carmichael
anonymous
rigorous
shipments
institut
ike
orient
trying
##pl
momentarily
pollard
zac
gregory
##rich
whitney
behind
someone
minerva
reese
##der
gillespie
realises
frank
timed
hastings
##taka
olympiad
##rit
##amina
estimates
##1
putting
395
ᵐ
laboratory
korea
lifeboat
##♥
ـ
moreno
phantom
diversified
advisor
eki
pga
maru
##ling
huey
agencies
jail
mcnamara
piles
isbn
strange
monks
securing
williams
axis
reed
combining
imposing
sound
join
handles
##pa
mosques
水
posthumous
constructed
messenger
ambition
antique
edmund
chunks
robbie
ruled
minus
brazil
groaning
eastenders
dwelling
finely
etc
astoria
##ッ
widely
ᵍ
vs
##just
slightest
bulgaria
maris
minorities
torch
stepfather
lange
prize
##氵
oscar
oldies
licked
ivy
simone
[unused840]
bolted
icons
##ου
conserve
concrete
rotten
departed
1890s
resurrection
shareholder
valves
##vani
madrid
trusted
reckless
290
bolsheviks
[unused335]
ס
##ogy
bayou
georgia
distinguishing
traffic
cone
smiley
proceeds
##tao
weather
dna
%
visibility
##rgy
⺩
##oom
basic
homosexual
skeletal
holland
aquatics
rudy
##reate
wives
bro
co
run
fission
cuts
ம
res
worn
cypriot
##star
lore
parasites
ュ
##rl
##ressed
##ete
##ว
lancaster
suspiciously
salim
[unused753]
##pire
psychology
swear
rachel
alloy
adept
ල
index
##ater
consultation
gleam
biased
meyrick
exhaled
literature
aggregation
##ᄅ
arrange
copyright
cooking
bloomington
[unused989]
corrugated
[unused164]
leland
[unused922]
punish
##chon
hearth
padre
murray
operative
ᅥ
starring
schmidt
compartment
##oting
unit
precursor
seventeenth
ruben
confines
extant
judo
tracked
cites
fin
enthusiasm
##hea
##雄
##pool
walters
##₆
pounds
[unused610]
epoch
##mobile
circling
pinned
appeals
attache
genres
yokohama
northern
ظ
encounter
buzzing
usc
arched
organizing
eras
hurley
conglomerate
pin
dialed
darby
lesson
publicity
##定
##石
vowels
unionist
according
polling
principality
dennis
ং
##wall
##rana
##・
impaired
[unused962]
[unused479]
625
kanye
application
ignited
escort
genre
foreigners
rods
dissatisfied
##ibe
liberties
strode
experts
[unused543]
##rber
ᅦ
allowance
rooted
tak
palaces
disagree
##wood
ortega
schumann
nationalist
##hs
##urn
usher
##mussen
tamara
##dilly
parish
intends
[unused337]
ramirez
pharaoh
##nium
stimulus
jacqueline
convent
##ila
wheeled
##endra
powerful
kitten
guadalajara
125
calves
##cope
##ists
dynasty
mac
##lining
keyboardist
##ura
##sdale
embracing
links
elder
assist
croats
ticket
olds
drums
##izing
subordinate
pairing
gills
tested
##orin
imperial
integrate
pity
studies
colors
dun
passenger
instruments
##eves
passage
##grapher
foyer
whipping
avenge
comb
##ifier
entries
reason
##ants
##13
ui
corpse
blushing
[unused573]
##ulton
[unused634]
##utter
airline
[unused707]
contest
houghton
38th
##श
orbits
children
[unused580]
worried
impairment
canals
272
relied
##ter
adam
signature
##sel
##ar
opened
despised
##ication
##lage
2001
complaining
mysterious
observing
##chen
broke
fills
bored
nfl
drugs
zack
electrification
amulet
martha
daring
tabloid
hitch
externally
bigger
crouched
sum
rescue
electors
hackney
baton
##山
homeland
lesley
##₩
##rada
afforded
fern
switched
##far
dirty
possible
##ises
guinness
artemis
[unused470]
##nr
onions
resemblance
katy
##vington
bridges
[unused644]
ץ
comprises
presentations
dharma
##tang
jew
marked
yo
defect
christine
curran
hacking
##ency
screwed
humanitarian
ʐ
headline
sustainability
syrup
syndication
steering
mccall
##mat
##icing
leader
enemies
muscular
##ز
confronts
##ى
panic
collins
dans
qualifying
conflicting
pumped
identified
workshop
purchases
rustic
⇒
paddington
##ety
beaches
rate
brandy
##stream
##ия
[unused279]
chad
##谷
##fying
johnny
##type
1904
comparative
161
teddy
mae
baba
rack
##ona
assemble
stanza
##ific
umar
dario
alberto
spatial
optimistic
##37
##gon
nasal
models
clinic
implied
1a
headlined
sanchez
##rford
ruse
##inge
##&
1818
##eye
1953
voyage
chrome
buyers
##felt
ranking
##stead
bihar
augsburg
libel
##lide
ecstasy
imposed
equality
helsinki
cartel
mia
integer
thence
put
germanic
##ono
basel
monuments
##永
desire
athletic
completes
batsman
samson
periodic
lens
vittorio
malibu
gardiner
411
magna
##cade
too
☉
##ntly
##lane
airlift
patron
1618
stages
monarchy
donovan
textbook
margin
relations
ironic
account
another
##ctor
##vyn
hector
nedra
cables
1868
##erman
replaces
chieftain
rouen
highlands
[unused353]
[unused600]
anne
hips
##zi
religious
honolulu
apocalypse
regatta
75th
bulky
anwar
hill
nehru
transform
investigative
splendid
tolerated
##bal
laughs
reward
##onda
torah
343
##代
美
葉
1964
tinged
ᵗ
##ি
blu
wander
terminates
relates
consolation
ip
[unused78]
[unused5]
弘
unofficial
blackwell
##az
##rave
josh
interception
1790
rehearsals
proctor
kidnapping
remixed
relevance
[unused756]
rang
[unused388]
labour
gary
prefix
##rral
##iere
paradise
canned
organizational
##leaf
##hat
nfc
##wide
aback
mozambique
georgian
##rew
linebacker
##gpur
diplomacy
bleeding
##aco
agony
federation
skyline
threw
lark
##ier
dictatorship
needle
##care
singleton
scoring
66
environments
bravery
morales
##tom
rochester
nov
massacre
multinational
abrams
unusual
seater
▪
##sa
##odies
beers
helicopters
rbi
##ieu
##icular
behave
mustache
hilltop
raining
##ole
[unused780]
return
thirty
german
throbbing
exhibition
##oft
culminated
[unused161]
wanda
##leg
##his
paintings
arturo
skipper
jump
intercept
##ngen
aj
unsafe
revolt
technical
behold
ah
interpretation
shannon
##mata
[unused554]
uruguayan
ic
revolutions
tchaikovsky
[unused401]
##ulation
##sund
criticisms
congressional
haji
##wald
ᄀ
bp
inexpensive
neuroscience
ensued
re
pertaining
cds
noctuidae
net
##σ
succeed
ʑ
summary
me
cops
plead
wizard
obvious
restless
##ging
mani
versa
academie
franchises
dime
peacock
[unused18]
##enberg
[unused800]
##lio
akin
tau
##59
##lary
stats
vi
[unused682]
hackett
や
patriarch
##oche
getting
consulted
wrestlers
gray
provost
peg
devout
##aday
##tron
##mad
##phonic
sylvester
prove
danielle
せ
coven
nine
material
registration
##auer
lucknow
agitated
fergus
##cola
##リ
stuck
undergoing
1958
announces
alvin
sc
garnered
##mates
myers
1922
so
soldiers
directs
mechanically
motorcycle
streamed
ð
cancel
extension
apical
programmes
181
##pack
romanesque
slovenian
tremor
experiencing
stormy
emergencies
pigment
##gman
##cius
discreet
##eno
226
consulting
kinds
mane
##rgo
tran
##tan
harmonic
functions
ß
corrected
口
##woods
fish
shared
grin
villains
##encies
##ha
berwick
relevant
[unused165]
silhouette
##suit
serpent
trickle
##peed
##31
advocates
betty
thomson
hoping
rhodesia
##ssar
pagoda
remarkably
manila
##神
companion
$
betrayal
utilities
cleric
##ob
riverside
meade
##gren
cane
##eti
album
launcher
alien
yves
[unused81]
klaus
##ո
carroll
##lster
##eng
pdf
##guchi
##dek
ramps
[unused823]
thumping
pattern
dolly
image
freedom
##弘
architects
vowel
[unused283]
barbara
dreamer
禾
travelled
mattress
parchment
exclude
selling
intercity
##owing
woodstock
standardized
proto
chopper
situations
germany
dinner
##oria
ominous
trip
mcintyre
multicultural
restraining
##cede
compositions
relaxed
pip
##fire
labrador
suck
tons
diploma
detect
libya
flawed
redeveloped
transporting
fades
vlad
sainte
331
##ulata
fighter
divine
abuse
uneven
[unused911]
mankind
genealogy
line
churchill
lax
key
jared
##མ
olympian
billion
fragments
late
crude
politically
andrews
statistical
benoit
hindi
vector
penguin
[unused2]
shifts
kade
gasped
adapted
supplying
ق
part
opportunity
##wan
##ʂ
profound
mathematical
repealed
##grave
potential
humiliated
##க
lucia
dai
tides
daddy
##kos
304
##lom
sinn
throw
hamas
responsibility
outward
g
exposition
oxide
core
allison
grip
adultery
lan
angelina
cpu
symposium
explain
microscope
support
##llan
daisy
shelly
1683
##宗
snacks
battalion
##jan
レ
##hmi
tuck
fertile
illustration
raceway
cruises
maverick
marie
rogers
enemy
whimpered
shenzhen
architecture
botswana
[unused258]
##kin
solicitor
villain
##sten
##ken
##stone
ය
##life
alam
dioceses
fronts
uncanny
unpaid
stocked
governors
reinforce
rabbit
traded
robbed
##lidae
##gger
batting
г
susanna
civilizations
invading
atv
ی
queen
##½
##istle
faint
jamal
##bard
ノ
screenplay
##lian
##nica
record
1965
tiger
aggression
mazda
[unused288]
##ited
##ка
template
arya
[unused575]
##tz
poking
hoffmann
primetime
##icum
rosie
##χ
##din
successively
cass
##duced
synagogue
notwithstanding
fragile
##nti
richter
owed
lina
location
pussy
bribe
##claiming
mx
##elis
##ft
##shima
rain
courthouse
squirrel
##rank
carousel
surfing
claremont
2010
hitler
grassy
ska
550
manages
##rry
##vial
scarborough
carpet
jul
lakeside
session
pig
ː
hopeful
dye
hayward
aristocratic
cavity
booking
unleashed
401
infinite
jordanian
[unused175]
##field
##slow
lashes
[unused438]
policy
##aer
sprawling
disguise
explosions
2008
##nia
qing
tailored
##dora
convergence
adolescent
filter
gem
niall
intensely
##neer
debts
narrows
[unused501]
##sto
slope
nikolai
rays
guests
skaters
regis
bomb
rapper
terrain
chilean
tenure
ₗ
puppy
grand
samurai
##otic
creature
recommended
probation
cadence
##nded
##bble
¿
fears
angle
preceded
trailed
[unused212]
star
semi
khmer
##rina
thai
hughes
chuckled
##tering
attached
»
excluded
1910s
[unused136]
[unused917]
##kr
example
[unused845]
individual
instrumentation
ss
##hua
twists
carlton
##य
luca
loretta
roche
diaspora
regulates
pollen
spherical
vulgar
loyalist
four
mexican
edged
outlined
redundant
keeper
ᄋ
festivals
dickinson
styling
illinois
touching
ascending
221
islands
brewing
iihf
gaul
51st
rothschild
retain
canucks
warsaw
##omy
meiji
ram
consisting
##rance
murals
reaching
select
[unused790]
##wine
##anga
affectionately
exceptionally
clinch
yards
colored
##cke
mtv
impossible
recipes
literacy
...
cooked
projecting
bangs
arnold
##tung
vehicles
southwest
workers
##lina
accompanying
symbols
plausible
polly
supposed
##貝
facts
harrison
wagons
boise
brains
sorts
##eve
tod
sausage
##す
prevented
[unused860]
aria
loving
##jou
244
realizes
promo
##els
##ᄂ
railing
hui
##graphy
legislature
1688
kenny
gripping
fewer
ミ
during
##ald
1888
gazes
##borg
##drive
##por
suite
disguised
broker
continuum
air
integrated
gerais
magic
canadian
marathi
anywhere
invasions
##minated
vein
interviews
plaza
paisley
garcia
owners
walkover
circus
juventus
64
boycott
sucked
suspicion
moniker
myths
cheer
##arus
render
cristina
##masters
occurred
[unused504]
racist
##lessness
instructed
undergo
crotch
motorsport
##fly
timetable
php
yearly
parameter
wrong
v8
qin
[unused686]
##モ
##val
toledo
##pour
[unused502]
hk
panel
1804
store
##rane
sidekick
judged
##stra
conveyed
commence
##voking
inspectors
commanded
feather
format
db
1734
comes
station
##carriage
poole
[unused602]
residing
scotia
136
basement
poor
alternative
##fur
examinations
行
sights
accidental
104
##wani
opium
[unused39]
confrontation
toulouse
manga
childless
louis
peer
japanese
##tta
bulgarian
##τ
ordained
playable
[unused672]
unfinished
grasped
retribution
##7
searching
mimi
lifelong
dinosaur
gubernatorial
##よ
linger
containers
commodity
ང
rann
electro
introduced
astonished
##ek
1000
floor
##game
manner
amused
tab
##o
##mm
presley
##lash
版
##rled
philanthropy
##eger
familiar
hm
latham
花
##inatory
broader
behalf
bitter
ja
##oza
hotels
brighton
ভ
.
commodore
prussian
##foot
sheath
allow
hasty
frs
##weather
maria
procedure
jaenelle
##ratic
secretive
hastily
##比
roaming
clashed
lauded
##lysis
relic
ruby
areas
burundi
warriors
thumbs
##§
nearby
undeveloped
conclude
unlimited
potomac
lunatic
##nde
evacuated
##gler
partnerships
recognise
edwards
radio
seth
[unused263]
winnie
piloted
zoning
preach
##ij
tasmania
bruises
haley
##roids
rounding
resentment
diver
里
divide
##hima
utilization
1935
letterman
そ
[unused864]
kaladin
austin
transmit
mourning
voice
uptown
abortion
##oue
ginger
sunderland
##yar
420
sampling
lovely
briefs
galilee
[unused407]
1905
le
##mia
216
##zing
##bs
##geny
verify
dip
1766
dj
cholera
inclined
spying
brotherhood
region
pratt
faulkner
nair
communist
cynical
total
##press
esteem
announcement
##sch
##я
soil
knowing
sweetheart
outrageous
morrison
leopold
tilt
nectar
##eous
remain
skeletons
parana
##မ
budapest
releasing
ida
##kato
spielberg
bat
tal
##セ
landscape
##ten
##lli
nodding
arrivals
increases
combination
interior
lottery
programs
rican
##ize
##ras
terrorist
pursuing
antiquity
stereotypes
investigators
swelled
lexington
##sl
shaft
jozef
lid
neptune
##pods
weighs
bertha
##iaceae
fascist
hop
ion
cries
##boards
adoption
spared
[unused856]
1870
destroying
sampled
champs
##zbek
residence
[unused567]
sexes
blackness
paw
β
feeding
[unused488]
ton
bethel
thump
##dev
1907
gin
limp
##ught
eileen
##idad
bohemia
##don
1897
darkening
##dou
handwriting
finalized
commencement
ultimately
baltimore
prepares
private
surplus
##lined
fishery
##ᄃ
perth
##囗
[unused322]
arabia
wherever
و
piers
continuing
profession
maxwell
sioux
fuss
##十
nominated
voluntarily
spokesman
breakfast
ingredient
##>
novice
1821
aston
executives
participated
allen
thirst
built
##39
seized
armchair
##chu
monty
noted
inn
[unused767]
privilege
##ⁱ
33
presided
θ
neighborhood
domestic
vendor
rivera
topology
##cave
reversal
1664
pioneers
working
really
antenna
[unused742]
dayton
insights
happening
stirred
sheriff
lad
[unused107]
freeing
reclaim
belinda
winston
ト
complicated
pier
tobin
archaeologist
yacht
º
blade
′
●
##phones
periodically
buzzed
315
##cturing
hendrix
diversion
火
kyrgyzstan
depressed
quincy
buddies
tingling
only
##mmon
destinations
guidance
sinister
有
noelle
telephone
echo
fundraising
##les
##cino
arguably
professor
##ely
ए
##ams
141
reindeer
570
amsterdam
momma
pba
analog
unmarried
quarry
roi
##cek
##gg
bold
intervals
warnings
fiction
mummy
semitic
throne
jefferson
loyalty
##tized
##ivation
come
orphans
prevailing
distract
creation
##logists
##sport
ownership
##gara
[unused509]
faithful
##es
prevalent
syntax
##pro
scandal
np
defeated
value
1945
malone
erection
koch
##hic
expecting
williamsburg
hormone
teachers
##cultural
brings
legislator
townspeople
86
[unused694]
[unused467]
sir
rattled
credible
1725
iraqi
assigned
acclaim
alumnus
zero
mustered
panorama
mali
becoming
vista
##م
feng
##mps
##puted
##ন
entirety
##tric
belgarath
looking
##enbach
tonight
afghan
accessibility
1963
crises
arrays
kylie
[unused110]
cutler
parents
##kki
insurrection
##chy
alone
astor
36
slams
1754
fide
##att
lived
hudson
celestial
notified
[unused638]
##rard
##ᵉ
##bib
hare
lease
originating
ᆨ
##gic
寺
miami
primarily
ethiopia
##oney
sanskrit
rene
bordered
collecting
signals
demolished
momentary
gunshot
##zin
cade
oath
##nch
dirk
##estinal
##osa
##eving
##ions
minneapolis
stomach
##rence
68
##pins
esa
semifinals
incorporating
brandenburg
##ven
[unused368]
harper
contamination
interested
##ttal
[unused149]
allegations
geared
stafford
stocks
surveying
##nni
##arte
1877
bahrain
disappearance
viking
##tious
possessive
atlas
manson
guido
inferno
unseen
transferring
failed
afc
losers
pathogen
ɲ
appropriations
negro
mountains
incarnation
infiltrate
displeasure
preparing
circles
emails
picket
device
bay
habitat
leaf
eurasian
viewing
sweetly
brigade
rein
filmmakers
treasury
precedence
longitude
view
matthew
217
1971
##nging
unnecessary
sobbing
suv
」
britannia
patronage
oblivious
api
alba
walton
afb
fulham
overwhelming
ᵉ
sri
[unused404]
road
paxton
existing
lucian
and
marina
clue
minsk
gloves
##~
[unused657]
spain
buffalo
##eon
##ு
tallinn
1625
##ր
mri
garner
[unused178]
christians
train
withdrawn
##rish
rn
##za
crisp
bafta
##music
##ents
torque
hillsborough
republicans
civilians
confidential
prominently
because
satin
generous
##lization
node
##bbly
reportedly
navigation
##nivorous
outing
epidemic
guilty
dodgers
adele
droplets
##ں
4
shave
##cide
dried
fixtures
carmel
beech
580
aloud
harpsichord
ट
shining
immigrant
looked
##■
flank
less
shiny
crafted
parisian
australians
journalist
seniors
##iki
##gan
organ
sticks
forgotten
mgm
responds
departments
maker
grasp
croydon
hua
goodbye
leopard
1814
107
[unused836]
inhabit
lamar
aarhus
##55
greene
1400
interchange
##dent
illumination
##inator
data
coding
dependent
blizzard
turtle
dizzy
alfred
ali
satire
reproductive
##ural
spots
##eis
playful
yelled
t
[unused387]
rhodes
##text
marching
##walker
46th
argus
##tension
##me
arrogant
relies
##oux
purdue
##hane
歌
smiles
##qui
double
##tley
[unused55]
segment
ceremonies
portions
entertaining
laurence
##hler
[unused921]
##liness
statement
onset
escalated
ting
telecommunications
##genic
alf
guess
attempted
wolverhampton
阿
soda
translations
council
forgot
cleaned
covers
minimize
experimenting
reformer
garland
triangles
smoke
1859
optic
##ara
wisconsin
snack
debated
##minating
claws
sousa
exclusively
##sw
laborers
[unused318]
eyebrows
##ez
pistons
anterior
##bo
dice
##rra
africans
##charged
socialists
ammunition
rushes
golf
cannes
ethan
babe
plank
journeys
represents
adolescence
tributary
gough
[unused915]
uk
mp
level
customers
hating
scissors
labeled
discharged
muir
brew
safer
er
aleksandr
wrap
wren
pines
pets
##rsten
ར
guatemala
##sell
frightened
single
lucifer
participation
འ
##wl
systemic
applicable
bars
entrusted
lombard
memories
regimes
reflecting
fair
profile
zoological
dragging
##omba
spectrum
property
technological
##je
placement
##jong
district
##patient
pseudonym
legs
confirms
textiles
[unused708]
vents
milling
considerations
worker
trips
closet
##vr
ɣ
##lga
toll
geologic
beacon
immediately
##nya
handheld
krishna
aggravated
stimulation
cheney
##wn
omega
##dna
investing
coping
residences
wwe
laurent
culminating
caesar
ribbons
##mut
neumann
橋
reacted
shaping
debut
cupping
##bf
edge
prosperity
aperture
##sable
citation
carriers
mistaken
english
sketches
##dlow
caucasus
60
##tonic
lasting
rehearsal
reporter
エ
finland
besides
[unused137]
inquiry
gear
pic
止
##orra
sniffing
##竹
nils
chopra
duffy
slovenia
tours
attorney
312
deepened
[unused343]
theorem
read
agreement
matching
appendix
marianne
tribes
##bie
##tics
130
##oz
larvae
##folding
deaf
dyer
sacrifices
backside
[unused531]
##uce
fact
remark
budget
##yev
publicly
import
##chers
pomeranian
woodrow
##oman
51
occupies
okinawa
##ception
##hai
wounded
##yce
divides
showdown
##act
him
kyoto
finance
derelict
chiba
maintain
philippe
中
##ming
armada
jim
##ɫ
duran
day
##iom
snatch
##ester
##ruff
[unused910]
www
levant
winner
reconstruction
consort
lock
##₹
duration
legitimate
involves
##rri
[unused843]
pastor
large
offices
restraint
##tial
berg
jimenez
blackout
m1
##sb
##д
rule
paraguay
##ulating
খ
heinrich
announcements
align
[unused898]
confident
tended
fifty
turbines
companions
dusseldorf
aesthetics
##chev
##xed
athletes
excused
suzuki
[unused641]
showtime
jill
changes
seminar
master
hunts
smith
turin
initially
suspected
banjo
inca
##urized
pediatric
hull
manufacturer
##野
insurgency
parking
nicely
proposal
##basket
##bry
[unused712]
torino
##tor
##村
##quil
jesuits
counterparts
##iro
vegetables
tray
interrogation
nutrient
groin
facto
teaching
flattened
[unused382]
baritone
##ures
##lez
trustee
drafts
[unused85]
chopped
planetary
occult
insistence
robust
apply
surgical
specializing
fourteenth
##heads
950
##wheel
[unused687]
wooden
excavated
honour
##mble
##rba
grounds
cue
##grin
internationals
hundreds
65
##fc
nottingham
obliged
countered
em
guard
##ond
benevolent
rides
miraculous
##logie
##cliff
celebration
nautical
lac
##table
executive
size
##boy
reggie
reins
en
1802
298
smashwords
##iate
inflammatory
here
##uded
hilarious
homeless
avengers
noticeable
##due
ד
##writer
##king
launches
jacob
invisible
comics
motive
emphasis
##ndra
tunic
circumstances
auguste
davies
mollusk
##ვ
visitor
highness
tenants
topological
munoz
collaborator
ski
glancing
appointment
##bari
kw
harmless
counter
sami
cebu
source
##tten
locomotive
originates
fold
1702
fatigue
##quent
##cit
wasn
##anta
dresser
1759
bend
shock
drones
fool
gave
geology
beetles
trench
penitentiary
elimination
nominally
##erian
cid
blinked
##ɲ
[unused612]
reaction
score
inaccurate
critics
positioned
##女
predictions
##wicz
stopped
##‑
interest
bible
surreal
devastated
flora
##ja
missionaries
milo
##iest
dismantled
##scopic
zone
artwork
volcanic
##mina
remade
b
##扌
deeds
acted
horizontally
##cable
end
protested
cells
rf
resistant
midsummer
complaints
power
##loaded
##dya
##hin
surroundings
##tained
⽥
enigma
barrow
internationally
raise
merger
shore
denying
sunni
ₜ
clapton
##nts
albanians
##©
charismatic
##tite
tolerant
vichy
share
##uing
policeman
tinted
jonas
bryn
forte
##alla
vinegar
##ery
ナ
allegheny
detectives
##jar
nagoya
ད
denotes
sargent
sweetness
[unused808]
swift
##tein
unmanned
stimulated
##ye
emanuel
dagger
clarissa
##hos
men
bicycle
##chio
osborn
sky
##opa
defence
fearless
nods
huntington
ridiculous
decks
ritter
[unused455]
leigh
##acing
validation
nestor
[unused31]
rig
##wice
bliss
safe
lush
bridget
barrier
ط
mein
vile
##cm
carpets
##吉
reilly
##ノ
শ
queensland
##ols
domains
protruding
ט
##rom
converted
helped
embroidered
advantage
mba
##tology
people
accepts
stacked
pang
##room
##hila
pointedly
##κ
beans
pleistocene
les
##│
choked
ව
##izes
aux
isolate
ヒ
exploded
burden
[unused65]
deadline
al
frey
interceptions
campo
##onis
abandonment
[unused884]
maze
glasses
doctrines
aa
delaying
colombia
ג
anand
##so
##sack
gears
fordham
র
cosmos
thick
tennessee
phelps
heads
epic
bengal
angels
hammersmith
wr
jia
tornado
こ
##te
##26
collier
##bana
##jured
##bes
##ange
##arina
snow
貝
welding
indians
##tle
231
kelley
scrapped
translates
shuffle
minimum
facilitated
graz
##set
shorter
empress
gearbox
flees
##nator
nurse
coronation
users
rq
insects
##hre
narrowly
coincidentally
##une
治
cardboard
registry
flung
shepard
cathy
resolution
restrained
##tania
alleged
mode
unicode
[unused646]
[unused433]
hideous
programmed
harbour
sharply
ballet
phil
sar
eats
automated
802
[unused439]
contracts
abandoned
prospects
diva
theodore
##idge
oh
pageant
accepting
specifically
chestnut
pod
##lka
battleship
bonded
##ب
courtyard
happen
beethoven
kansas
[unused494]
rom
salsa
fore
installment
randomly
hiding
gma
appalachian
dammit
antioch
boogie
enclave
havoc
revered
warming
##zen
##ª
##saka
##raße
attributes
##ß
recruit
invited
smashing
rec
translated
slowly
epsilon
transgender
##dha
δ
affinity
pills
roderick
##hner
remy
title
hindus
sociology
adherents
frown
classmate
maurice
##drop
clarity
117
##und
[unused243]
obstacle
rutgers
漢
223
##ₐ
moe
suffer
catastrophe
ruler
nervously
fantasies
arrest
##თ
[unused219]
disciples
[unused54]
xp
kinship
rough
##nda
frog
##ა
objects
savage
silesian
cecil
protein
slug
[unused526]
metaphor
braun
pendulum
kite
functional
##nas
freaked
frontiers
bypassed
##kir
##taro
johnson
bubbling
reigning
imp
conventions
nutrients
hated
ᅩ
convoy
marius
##achal
behaviors
authorities
yamamoto
waves
attracting
designs
patrols
[unused220]
lodging
broadcasting
know
##lc
mega
sheldon
bragg
medical
erich
wigan
cranes
casts
specifies
kia
alexander
richie
mondays
reviews
limits
kentucky
swelling
policing
##uate
[unused234]
neither
ventura
cam
purge
lads
##mann
cipher
dreams
luna
129
##ander
rates
pine
morality
##ও
bags
disorder
##ian
schedules
##nets
prelude
enriched
[unused326]
factions
##nir
1st
##ental
remind
airship
shin
##yed
bothered
prologue
latch
tapped
broncos
[unused862]
bond
pathways
##kim
##ے
##pala
1957
laughter
accounts
##cp
cheryl
ʋ
villas
mahal
morphological
exhaust
deformation
early
contention
volume
corsica
leaflets
warren
economist
mausoleum
sherman
fed
##itis
##jiang
belong
priced
nineteen
waived
proponent
##ayo
##海
framing
##tled
00
##ego
sima
##nan
##lyn
r
gt
foundry
wcw
aiming
140
cambridge
mice
##sey
pill
reeve
pedro
1994
secrecy
qu
koln
flexibility
maneuver
stony
midlands
akron
carbon
##eson
1735
thomas
actively
1860
512
lulu
unacceptable
##ried
lot
consecutive
leather
paula
violations
accusation
punching
citizens
jameson
ต
##ean
domed
beverages
490
eduardo
"
##suke
apostle
[unused204]
bout
adventure
##bund
cuban
##onia
yugoslavia
##ennial
nic
clap
[unused655]
##ea
references
packaged
##orough
gospel
happily
ambrose
224
psychotic
littered
−
pierre
homemade
combines
lucille
##lon
##rdy
rains
interpretations
specialized
gasp
predators
sikh
##内
finances
stiffly
rosenthal
formations
##太
1961
[unused514]
##kumar
castle
maintenance
static
expense
1930s
rug
manly
##vation
##jet
##ence
##bbon
contribute
winslow
mendes
kings
base
[unused740]
##group
agustin
1796
pg
##ා
threatened
imminent
##onga
solemnly
yellow
##ax
nad
episcopal
##rica
abandon
،
495
linnaeus
listening
informally
gus
introductory
nobleman
parasite
priestess
milky
coats
masjid
successful
penalty
streaming
braced
transmitter
sincerity
hearst
₄
said
preparatory
booklet
assemblies
seriousness
##ぬ
hypothetical
ornamental
library
sustainable
coil
##ivate
yao
frontier
presidential
romania
ɴ
[unused325]
1969
##gb
grill
steward
dissolve
##lative
engaging
assistants
##bla
design
freshly
distillery
##—
outrage
averaged
hunt
skate
sometimes
annoyance
[unused497]
##olin
ledger
bladed
pistols
hideout
lasers
##pani
jam
below
♯
dexter
illustrations
880
noticeably
lamp
sake
hybrid
[unused522]
##ndon
succession
combustion
explosives
protectorate
gossip
max
##evich
epa
palatine
##հ
chancel
writers
##bill
module
##uit
[unused375]
crazed
ter
##ης
##agi
##ux
interpreted
fargo
outputs
[unused493]
aura
refuge
deployment
karlsruhe
colder
write
ה
##que
fey
be
random
garde
adjustment
##eman
rosemary
crosses
balcony
##m
athens
##ware
olympic
reside
marin
disneyland
##zed
empathy
jr
nolan
sustain
44
graf
[unused679]
nostalgia
incidents
acknowledged
dissertation
crosby
##mism
converge
[unused592]
341
gases
arabic
contacts
##tier
snake
rudd
elevated
##illa
126
aiding
##fa
drought
##itors
prohibits
pv
##貴
fixed
configurations
afterwards
raaf
[unused895]
norm
disputed
tory
earthquakes
թ
muse
[unused29]
##nay
##baldi
282
activation
東
we
##pen
tri
[unused264]
barges
ク
pardon
1646
heaviest
feedback
jon
lyman
majors
cinematic
anchor
randall
streetcar
housekeeper
##dote
powers
clone
[unused130]
##pia
daniel
done
wrestler
captained
bush
##version
registrar
[unused154]
##aja
byron
globally
gottingen
[unused617]
##চ
competitors
##rma
irrigation
spectacle
lion
##ule
[unused313]
##dp
shillings
deeper
enzymes
predecessors
nba
cocktail
mag
footed
disagreements
##west
byzantine
medication
philology
turning
##博
anthem
older
##icate
chihuahua
earls
##mine
smells
fastened
drunken
brazilian
rocco
far
catches
rot
660
heat
##ifies
ant
shouted
selangor
bumped
parochial
##ign
universite
top
nouvelle
stable
barnett
##ᵢ
##rey
guided
[unused92]
poised
##iger
exemption
hamish
certain
payroll
rae
tampa
2021
##eme
yugoslav
sits
[unused605]
crowded
regent
attendant
odessa
##kled
elephants
ari
proceed
suited
る
ghanaian
countess
awarding
##coming
computation
packaging
tops
##21
田
killed
hindu
st
435
red
##lam
##cas
gritted
[unused828]
imaginary
[unused449]
08
renewed
##jian
watered
portrait
surely
stunning
substrates
پ
repairing
coco
percussion
packard
protect
daryl
commissioned
##tr
herb
sacks
scan
heidi
##omorphic
fresh
ajax
struggling
blair
##ος
insider
rumbling
##lla
amelie
mcdonnell
sutra
ultrasound
specimen
##ricting
huff
memorabilia
pirates
##len
##iting
ab
heavily
armory
土
jacobs
##gled
interruption
reject
##vili
stage
venture
werewolves
nap
warmly
##glio
showcase
dies
sued
endowment
tire
flaps
domino
##oid
hotel
looks
ucla
translating
1903
peng
rockets
fog
fiji
sounding
##白
99
affair
evacuation
maha
spurred
jonny
second
homecoming
hand
scent
algeria
##eza
##ル
pokemon
flirt
[unused741]
##ttered
pickering
##sie
##ties
provider
submerged
##н
powerless
hoisted
cuba
philippines
butterflies
ineffective
ashford
take
weighted
welcoming
##wick
spreading
樹
mechanism
##jal
##thor
##も
rfc
permanent
noses
drake
##joy
scaling
thereof
minnesota
gag
camp
biennial
cory
judiciary
poisonous
unlike
155
##ович
fx
mammalian
continental
edith
hydro
stokes
file
than
beck
frederic
stabbing
privacy
assumes
assets
temeraire
consul
hadley
##vance
##oped
##ku
liz
supplement
interpret
tobacco
##へ
##iology
jj
scarce
imprisonment
showcasing
252
თ
##mbre
##ssel
fund
westphalia
determination
##adt
mainline
symbolism
chef
232
pretty
rancho
##dable
gates
##ouk
##cana
dates
##lock
prepared
##uto
doorstep
##oning
steaming
rippled
hum
##ntes
1978
apart
dumb
φ
siberia
antagonist
bites
1773
##rona
vulcan
crimea
eerie
feathers
##vs
escapes
shooter
entertained
##〜
coal
reviewed
##old
##uche
dockyard
##amp
eta
##rdon
mutation
[unused304]
##ani
bakery
principle
##iated
vilnius
ostensibly
mastered
thru
georgina
thinks
technically
mall
##ryl
₹
folks
sep
chan
appetite
kind
pages
centrally
clinical
swinging
submitted
mapping
pudding
ally
jazz
cartoonist
45
handling
##nu
##mes
prostitute
##士
truly
document
separated
bassist
bates
choreographer
honorary
fountains
declines
valley
demon
created
damp
##ination
grape
##ʐ
constable
dubai
adolf
footballer
equity
explanations
ir
major
ர
elevations
mccormick
verified
##ア
fingerprints
##yo
ear
ship
reminiscent
glimpse
younger
opponents
[unused189]
ambient
unemployment
##cate
awhile
##ट
##st
[unused766]
up
loosely
collided
lightning
##hot
##rut
##tra
mare
editorial
##√
##ame
zombie
##e
nyc
deposed
sums
238
##ε
gust
##rden
pits
##osaurus
坂
barking
weeping
statements
polk
forbid
hilbert
##lassified
##uz
158
##∧
subdivided
exchanges
hellenistic
veterans
##gration
wei
observation
basil
inspector
##rio
jamestown
laos
cong
[unused415]
botanic
voss
outstretched
##ove
determine
##lding
amnesty
sam
proclamation
##“
##vd
##ested
##ceptive
shrimp
##ge
bolton
lineman
sh
biological
difficult
subgroup
hinted
##bon
rhythms
balkans
lifespan
girl
creator
strip
##kie
eduard
enabling
##hm
huntsville
##mos
available
conversations
promising
##sque
uhf
foreman
lambda
susie
##ʌ
boil
ought
flushed
norms
[unused386]
abs
accomplishments
ħ
preseason
connecting
highways
##田
lions
shower
renaissance
204
paradox
och
carpenter
productive
expanded
leisure
[unused815]
compelling
eastbound
expects
henson
[unused187]
ladies
prose
inmates
tasks
[unused913]
##lten
bhutan
titus
frame
particles
caste
heirs
readings
point
noticed
lives
96
##meyer
variants
##stis
陽
formula
emeritus
faculty
pavilion
como
incorrect
##lik
easy
espn
circulation
cover
display
widespread
race
shoving
however
robin
acquisition
marks
jay
dwellings
bikes
elliptical
[unused583]
##iction
hauled
##國
guys
centre
rousseau
agreeing
##ysis
somewhere
peaks
uruguay
psychiatric
333
##gnan
fauna
ज
standard
sixteenth
mcc
##codes
hmm
sindh
sw
##quest
shortest
##irus
##bis
saul
[unused750]
gallant
##ash
reductions
[unused156]
solvent
oskar
##mbo
residues
##lana
incentive
squad
[unused104]
[unused403]
wal
experienced
lei
##cel
##qing
chandler
ipswich
compliance
sai
dough
madden
carbonate
sulawesi
addition
popularity
##sti
##ndt
relational
reunion
##dington
luxembourg
##bers
allocation
##pon
visited
[unused64]
lowe
toxicity
rosa
##cken
ا
humanities
kurdish
biomedical
##bush
volta
##訁
spilling
gladly
timer
amateurs
carp
[unused749]
##mara
stalin
学
demons
7th
##waite
giant
##rna
angles
rammed
brown
driver
58
instruction
disagreement
logos
cameras
algorithm
andrea
trucks
manitoba
kellan
m²
serviced
distinguishes
bal
markham
pocket
lotus
lam
contempt
grave
##8
possibly
prescott
practised
skopje
organizations
##tzer
mom
heavens
douglass
20th
denise
asia
##aj
skier
old
公
asphalt
श
##lat
##af
203
resembles
chicks
##lho
informing
noting
ceilings
tatiana
と
operations
##kong
hillside
airplay
seller
##止
abbas
cd
expedition
mitsubishi
motors
recreational
1789
reapers
フ
enjoy
##hammer
temperature
providence
##iko
##dar
##rring
electrical
buy
unexpectedly
spanish
[unused589]
damaged
asian
fig
sloppy
fa
##tius
subsistence
480
resign
ties
submit
team
topics
cracking
police
ultimatum
gruff
ministry
letters
foul
##00
ninja
boeing
universidad
tightening
clarkson
##ados
##drome
persuade
sprayed
petite
invariant
broom
speculated
es
##ical
fun
##ش
reflective
berries
375
rats
540
##rrick
98
##nami
braking
doha
##xia
smartphone
entered
##taken
forefront
grains
awareness
escaping
embrace
pilgrimage
antony
liquids
cured
remedy
pasture
samsung
perform
augustus
administratively
##レ
affiliated
fledged
angry
saw
clergyman
pouch
##fires
asteroids
##ances
##tose
dodged
daniela
##uel
shake
weights
##ф
##rah
##cona
howell
porsche
trojan
promoters
reds
explodes
##ץ
kilda
##ig
continuously
host
flaws
invitations
##健
myriad
##relli
nokia
cohen
##ened
##rum
descended
notorious
louie
##হ
gabby
bullying
##odon
mis
rum
##о
language
slammed
alternately
craftsman
philip
unexpected
percy
involved
[unused903]
reorganization
##champ
alexa
##nburg
griffith
palazzo
##biotic
##dee
alice
##bound
wolves
vaughn
fabrics
mesopotamia
clasp
fairness
yarmouth
##⽥
boyfriend
1830
admit
assaulted
oclc
1719
lays
56th
tugged
paralyzed
visiting
recipients
##eding
breadth
transient
just
loaded
namely
;
##dus
##nding
monaco
jealousy
dollar
battlefield
mischief
preceding
##ן
yd
catalog
lucius
roundabout
sentai
codex
election
libraries
subscription
appropriated
fans
plants
mann
oder
ti
outgoing
clouds
injustice
industry
eli
wharton
##bird
biomass
##tern
[unused795]
##hism
##英
admission
久
genetically
arabs
kam
neutrality
jerome
##hp
##ze
printer
levi
induction
clear
macro
manifestation
vanished
rim
eased
##point
choice
daughters
##culture
sword
capitalism
##ishment
ross
automobile
banana
##tec
presentation
##ives
development
nipples
carly
velocity
mainly
naughty
horatio
lengthy
##nsen
hoarse
vladimir
##lica
muhammad
##uld
planners
##owa
panting
sierra
##є
loosened
∆
dating
pope
zion
pointer
livingston
blessings
bach
##olved
stellar
##riders
conceded
scheduled
brightness
final
##小
##ulin
grow
montenegrin
stink
wand
enactment
eliminating
purported
minutes
squeezed
##ungen
##方
##ᵀ
keith
mohamed
1880s
stunned
##cked
##ptive
kimball
nino
[unused651]
タ
theories
experiments
##'
busch
##opus
tricky
transactions
relieve
choirs
[unused142]
##lars
ز
reinforcement
historia
##aba
grams
decrees
den
[unused50]
ম
speakers
##pi
concession
interstate
austen
whenever
representative
⁴
hot
く
structures
melted
ramsey
##ago
…
##erative
harrington
נ
triumph
201
underlying
##rop
##ppe
ב
colleagues
grass
com
precision
laura
147
deliver
[unused715]
carmen
##corp
ェ
weighed
acknowledging
arthur
pole
cats
commitments
##lists
compatibility
shook
battleships
##52
airmen
jobs
sunglasses
raged
##ᅳ
##uba
##off
http
##ils
##plicity
benign
χ
monkeys
##bala
hope
reworked
interdisciplinary
hopping
##bbling
andover
##nko
spat
reigned
##⊗
##bot
oyster
guitar
taxation
xinjiang
bertie
ے
53
illicit
##iana
103
oracle
##fting
##coll
##icia
tidal
annexation
##tched
activities
rag
620
inorganic
ी
buff
##bai
concerning
bluff
shots
towering
##岡
##wala
bum
tufts
neville
isis
casablanca
quilt
berkeley
29
untitled
城
##ganj
playwright
##osity
tangent
##7th
contemplated
[unused752]
word
swayed
kung
##ial
excessive
composers
raped
ほ
banished
kilometre
blow
cy
finest
god
helping
##ucher
snyder
##aine
chanting
chickens
jingle
stemmed
##cology
lebanese
deborah
cookie
##dorff
natives
shaun
macquarie
seminary
seed
premier
ours
exception
squash
##eral
deceased
1980s
milos
miniseries
open
##raz
sands
ljubljana
kangaroo
poly
[unused369]
semiconductor
nes
outstanding
weimar
azerbaijan
[unused0]
luz
decided
wrought
##ड
tackles
messy
##ports
health
murphy
systems
argyll
thinkers
arabian
abu
smoothed
kayla
beaux
[unused70]
syriac
##pu
scarlett
##nie
construct
needed
cremated
jade
produce
1816
boiled
herr
sanford
##bourne
gran
##ћ
patterns
##su
##dberg
practitioner
orchid
kenyan
337
strains
1878
authorised
serbia
mitch
##media
hawthorn
cheap
alta
degraded
novella
coptic
belmont
substitution
adjective
##kh
theorists
##haven
diseases
##oses
sanders
cfa
deviation
randy
necessary
desperation
maynard
##nist
awards
thicker
descendant
niagara
forge
regions
brave
southland
blackburn
##cini
##yan
##nian
cai
identify
tianjin
tko
colonies
stubborn
mohammad
ल
lantern
##igo
turtles
plans
##fighter
visas
faintly
wilton
##verted
##yana
riches
restraints
condoms
whichever
##vant
guillaume
muslim
joshua
sid
nottinghamshire
portugal
##আ
june
mixture
girlfriend
fiba
vaughan
souls
priscilla
medieval
##ver
德
185
##uez
##☉
[unused670]
##》
344
servants
##anov
##ardo
##ם
##drum
[unused729]
touched
slice
lester
##γ
##hole
history
##ares
restored
dairy
anaheim
##ɔ
fluttering
ability
[unused135]
amor
loan
gentry
##85
banda
dwarfs
gasping
baking
reasoning
wong
correlated
brent
##ezer
puebla
calcium
namibia
advocated
primera
kaufman
ง
toulon
morally
roof
vague
min
patted
bunk
##保
hip
beit
bedrooms
sabotage
plus
gamer
bacteria
weathered
tool
崎
infant
ashamed
sigismund
##ワ
prepare
oval
flood
dialogues
declined
feed
barbados
##nagar
ugly
mutually
repeated
tony
alaska
##iot
distortion
granddaughter
##´
[unused299]
shifted
biography
[unused669]
item
wears
##南
astronauts
secrets
##zhou
##rons
acquainted
drinks
funny
govt
##fk
##isse
leto
##mun
ᄉ
[unused111]
stomped
attends
probable
points
gettysburg
intersections
royalty
##erie
abbot
##ivo
marquette
##straße
##u
nothin
[unused46]
legislatures
assurance
sentiments
isotope
logic
##udi
faulty
batavia
eastward
##`
flashed
[unused255]
ւ
ankara
hiroshima
sherry
2007
slide
drag
til
underneath
##lf
##ए
immune
##jk
synthesizer
hanging
maclean
yankee
deals
wilfred
abandoning
[unused973]
philanthropic
term
punched
martins
warden
hepburn
##clusive
teammate
##iser
conqueror
nawab
unbelievable
copeland
[unused916]
flare
##zoo
planted
transformations
1611
kennedy
sabha
duel
crusader
swung
##hony
##10
pass
census
brigades
525
sentiment
rna
ᵥ
axel
molina
##¨
bells
newman
angelo
roar
##tech
madam
erskine
##eaux
scholastic
explores
##«
[unused365]
clade
roared
ezio
ahmed
posthumously
wight
dialects
##du
exposure
riot
fulfill
frigate
##onal
socialist
proven
voluntary
##rid
martyrs
improvement
detective
satirical
##iii
monk
[unused13]
phoenix
montana
teller
birmingham
##dorf
mounts
chords
उ
স
forgiveness
indirectly
tiny
recommends
netball
willie
slight
wadi
carter
newfoundland
17
contemporaries
permitting
##han
drill
toxin
##fm
understands
##♦
##rie
pamphlet
connell
##lham
horse
trained
dan
stability
recoil
selection
weight
gravity
[unused695]
hang
overseen
##sner
國
cancers
molly
farmer
##nne
本
adviser
louisville
ranked
kumar
utrecht
[unused361]
##thermal
ex
customer
oxfordshire
decker
admissions
prix
radcliffe
distal
##⁻
1999
[unused242]
##unce
karim
##strom
angered
disciplined
inverted
##bbs
alpha
xv
ʒ
manipulate
fruits
rodney
donna
geneva
[unused370]
aromatic
viable
##ᵤ
blake
signaling
amplitude
duff
boot
##6th
licking
stealth
pleasantly
##ula
ᆼ
rampant
naacp
somewhat
merit
objection
##shot
1736
[unused287]
206
exeter
610
mozart
##wave
acacia
buddy
opposition
elephant
[unused601]
symmetry
leaks
##⁶
chimneys
poetic
admired
##mba
rumored
constant
biodiversity
favourite
mercer
strengths
fairfax
deck
trusting
classes
nm
[unused83]
smiling
##gc
lonely
macon
##ray
##∩
genocide
uttered
flawless
article
billed
##ᅪ
architect
lining
respondents
sewage
accountants
unpublished
dropping
recall
notion
##ལ
##tori
defaulted
traits
acton
bitterly
introduce
swept
ya
lacked
docking
quick
##λ
bartender
ghostly
##wash
raul
978
##ssler
crashed
ulster
##cott
ר
guru
encore
##ivated
##60
unbroken
converts
pose
yeomanry
##門
rotated
1803
1679
flanders
agatha
marvel
algebraic
。
##essed
severed
context
##ril
drafting
raft
facility
leeds
troll
impetus
##rosis
brittle
hue
begs
awful
horn
unease
都
seduction
peak
coach
irregular
travelers
analogue
penang
lost
blockade
##ausen
survivor
locke
erosion
gunslinger
##lete
2
florida
outlet
activist
reacher
ի
clenched
1604
##inae
##rdo
##vez
##rwood
##ʔ
remembered
liked
imagined
##tas
passing
mocked
siegfried
[unused690]
calm
influenza
##cc
msc
bran
j
##pin
land
missile
hereford
guilt
ca
hamlet
activity
discussion
seminars
sounded
##pur
ahl
wrinkled
scowl
delle
aberdeen
##nally
confirmed
jorge
storing
conference
dental
ghent
000
towns
李
melanie
##orf
bumper
##inen
##hma
rolled
##58
corner
##och
enhancing
childish
creatures
##ising
440
javier
##unes
neoclassical
matrix
speedy
dunne
demetrius
##ت
bombardment
shifter
frenzy
juniors
boyle
##door
suez
builder
grit
shell
praise
approximation
crying
erasmus
hush
##zell
variability
simmons
##bat
84
shah
visitors
doubts
latvian
violence
##tl
##ذ
##ェ
##rity
depictions
##lch
##ane
connector
soprano
crowned
ole
jena
cart
watching
suarez
##erated
##iring
国
vent
external
weird
caves
replied
##ala
newspapers
opinions
checkpoint
discourse
tidy
he
[unused218]
bottled
neon
study
##nction
##nath
grille
##ocation
maximum
1721
braid
##…
renee
##sions
strengthen
filming
cobb
##va
sf
sb
juris
galley
bern
henan
75
[unused166]
##gart
bowed
##\
##oli
writ
[unused297]
nanny
unfair
hates
ut
##ss
refurbishment
serbian
terence
regularly
screenings
##phon
##rand
03
immortals
##ditional
felony
seizing
emitted
khz
##ate
##borne
venue
eventual
institutional
completed
##aves
##ins
govern
##gizing
andrey
craved
distinctions
##uance
councillor
confess
peers
madeleine
oppression
pajamas
indicative
hostel
abuses
pakistan
wizards
pointless
##lkirk
gail
##apa
goat
dino
sandals
panther
decree
##lt
book
julie
250
tel
##pel
[unused432]
elected
kolkata
kendall
##ffle
enfield
stating
##yles
##ulated
##ი
suicidal
obtained
cease
##imated
nikki
prentice
civil
taxonomy
persistent
continents
managed
inspection
preventing
trailer
receiver
##ity
coin
mandated
valuation
lucky
##rini
[unused452]
stamford
apartheid
##ovo
adopted
##ital
tattoos
locating
begun
kerala
upward
professorship
blurred
nana
century
row
##oni
utah
166
extinguished
##德
costa
dolores
quarrel
marry
##combe
##ave
##iling
completely
##hip
##war
decisions
##bor
scotch
##giri
##wad
forrest
forensic
##imum
##glia
northwest
gill
compass
fragmentation
transcribed
1685
trusts
explanation
considerably
roanoke
stormed
generators
fingers
##tative
##区
116
hs
magistrates
##ק
mustafa
river
##als
landings
snuck
rubs
##gating
smoked
track
urgent
[unused408]
##box
guyana
enchanted
doubling
christmas
elongated
##iver
declares
##lating
alonso
veins
likely
arteries
tightly
conducts
stain
×
##cca
mab
anzac
offender
consideration
vargas
nadu
##ghton
297
currently
accessible
susannah
subdivision
audrey
pondered
relaunched
prized
##koto
becomes
hooked
1843
wayne
download
kerr
handicap
articles
psychedelic
postgraduate
lila
ह
1768
should
townships
stalks
##band
forts
pensacola
vinnie
##bau
145
gardner
##奈
##osi
woody
charter
millie
blamed
intrusion
##ssed
resources
##acy
##obe
paradigm
bayern
rightful
evolutionary
##⅓
##lated
##ades
1644
decline
##bara
blackberry
##ooped
turks
deny
prediction
8
@
housed
##ひ
varied
##turn
advent
collaborate
widen
bouquet
parts
lecture
##fast
vic
ᅴ
flown
movies
bethlehem
height
multitude
marne
delays
iran
cords
##color
##ɹ
licensed
hospitalized
favorably
gentleman
soo
religion
terminated
maids
grouping
employment
##mberg
circled
sigma
buckle
ensure
brendan
meant
##ous
##oka
[unused561]
dipped
gareth
gustavo
helmet
positions
subconscious
enraged
beat
hitchcock
fidelity
gorilla
congregational
stalk
somerville
devote
pixels
##ceae
greyish
ballast
moderator
directions
260
[unused357]
1798
wilkes
aleppo
##bn
consultative
putnam
precautions
bind
sci
intensified
packers
vin
##"
50th
ward
pak
##imating
hesse
filmfare
singing
treat
##raj
combatants
parades
valet
congenital
[unused564]
always
shudder
##hor
holder
irving
titan
beautifully
pacific
##dt
義
leadership
circulated
##oh
neatly
##,
rus
non
convicted
##escence
authenticity
oakland
say
producers
lass
deployed
deprivation
orphanage
figuring
cleansing
ry
best
sharif
discipline
brutally
tango
bologna
abused
gundam
sharma
27th
[unused576]
dove
غ
ᄃ
lorenzo
liking
chao
inspect
##中
sterling
amended
crash
engages
wherein
24th
##sily
##ᅲ
leicestershire
cree
bryce
馬
80s
collectors
quay
hannibal
eyed
sharon
otis
theo
slid
1977
undergraduate
##ield
mohammed
cemetery
pitch
commemorated
ciudad
laszlo
eu
arrondissement
##aro
dysfunction
##udeau
preschool
funnel
andreas
cheating
configuration
帝
organised
sorting
playboy
1692
ago
span
##hosis
emissions
[unused173]
##ᆸ
abolition
booked
##im
##race
madeira
donations
##良
various
overheard
computational
##umen
vis
canning
achieved
phyllis
qualification
##phine
insulin
##akh
[unused555]
musicians
brands
অ
##3d
竹
enormous
walsh
hunger
cradle
armour
puzzles
theater
##─
##atz
cruz
hydra
captured
africa
pavel
vera
will
razor
##sin
dear
##witz
cut
verbs
hybrids
achieving
##uman
##s
types
ratified
sanctions
naomi
##ng
johnston
[unused28]
##bber
answers
[unused250]
##ao
##oot
40
##games
desires
##wee
actually
kim
330
sadly
edison
commenced
hair
duck
⊗
sentences
pu
##skaya
##tov
lowry
solid
##mbling
50
challenges
flour
investor
classify
##lein
tolkien
pinch
swedish
##uria
bedrock
վ
[unused174]
σ
##名
subject
metis
hooks
biceps
[unused229]
hay
##aks
grimes
lateral
##akes
worshipped
つ
humble
光
violinist
separately
huddersfield
1640
lucas
romans
traps
scowled
maneuvers
sophisticated
credited
tornadoes
disappear
choral
highly
kosovo
campground
testimony
##ς
whisky
merry
volvo
kicker
hungarian
cannon
sexy
פ
illnesses
flutter
hooker
##khar
expresses
easiest
bait
blankly
##gie
bearded
supervision
discarded
typing
[unused937]
patrice
concordia
inspire
pride
shoreline
##？
confined
گ
slashed
lashed
aidan
debbie
mommy
presently
microscopic
##mi
cyclist
rose
wu
appearances
##oise
ferns
joy
gilmore
##usly
##ı
scott
avon
employers
vance
helpless
admitting
gps
##dhar
336
##eries
##ל
invariably
1699
hanover
##jic
##ج
wolfe
[unused230]
1753
sanctuary
rowing
thud
[unused947]
slip
dartmouth
hawke
nylon
406
regan
##ops
irony
cylinder
##ィ
##fed
andhra
##ah
southport
դ
investigator
##isk
6th
objective
torture
juicy
[unused385]
perfection
hodges
attention
##wyl
slack
whether
handy
##user
[unused169]
grind
coincided
speaker
focus
##mar
##tos
##thed
[unused171]
depends
competes
worries
adobe
##gami
go
##♣
walls
ς
##vah
##yala
metric
##emy
instincts
ν
december
[unused735]
##encia
contiguous
chris
##typic
thirties
squirrels
sauce
jagged
forecast
[unused131]
steamship
hardin
coupled
thierry
1986
julius
attempting
naive
ala
doing
murderous
gordon
dragoons
nunez
forgiven
##ars
323
bet
##wig
303
mills
miners
##gil
shove
カ
stroll
help
ந
gerry
scanned
##ac
poles
basilica
bordeaux
ye
hovered
legitimacy
brass
grayson
nicholls
##sk
##backs
publications
temps
effective
gaa
named
website
strolled
else
viz
##monium
gunn
gracefully
##ddling
bland
##graphs
##raphic
brunswick
う
##hl
177
friendships
lambert
##iating
negotiate
##nies
[unused492]
##harat
difference
chavez
wehrmacht
bite
#
papers
valkyrie
earthly
apostolic
lagos
##pheus
snarl
rand
bronx
[unused352]
landfill
teased
1780
arkansas
crumpled
brick
raja
nomination
chatter
drank
##rera
person
108
electrode
frustrating
zee
encoding
incarcerated
mlb
encourage
caring
##sul
ba
jays
winners
wings
zambia
30th
peeking
sodium
##to
##lund
whilst
##uil
supplier
##yler
seizure
##rigues
##position
ecuador
hurdle
melee
isaiah
jenks
luisa
gaddafi
gained
##®
clean
energetic
vertically
##kes
corpus
nadia
chemist
steppe
official
crystal
##mount
alberta
prophet
steal
buddha
[unused367]
carefully
grove
##bby
afl
inland
##gra
died
innovative
values
dolphins
approximate
smelling
neighbour
lodged
m2
89
conviction
wounds
ulrich
steady
ld
##ably
lahore
carolina
##note
winds
citizenship
natalie
unauthorized
##ια
leap
transported
dung
##bia
manager
mixer
##₄
##ritan
plotting
sighs
##iary
##nidae
desktop
complexity
lagoon
##14
digits
nak
norte
diplomatic
##tian
buses
goodwin
##rp
affected
assisted
hazards
39th
omnibus
cairns
け
celebrities
keynote
[unused537]
java
family
sure
joanna
overwhelmingly
irregularities
##و
354
canterbury
based
1930
[unused291]
mentions
spelling
interlude
##puram
chili
overcame
orders
knob
wellesley
halftime
program
21st
formulated
enrollment
##loading
##dis
れ
sol
##rdes
reverend
modest
peered
manfred
28
engraver
feud
##brate
ice
##mp
consultant
##enham
nowadays
wiping
lao
erect
lough
libyan
recruits
obscure
corvette
prohibition
toyota
range
lieu
smallest
stephenson
ᆫ
rigid
decreased
basically
##lier
##ma
caitlin
##mounted
conscious
neutral
badges
congresses
fury
harmon
detrimental
み
makes
hardly
nairobi
separate
sequence
##bson
amino
intact
knelt
fiona
defects
pull
goran
reunification
disks
gay
defunct
lieutenant
posts
sight
nico
bolivian
sociological
##powered
galloway
clare
##dder
advisers
resurgence
decades
བ
stevens
tang
doubt
worse
1775
frankly
106
gazette
coordinator
brandon
anymore
crushing
tutor
deemed
themed
travel
trainers
##pt
alain
##loh
vamps
##yra
chapels
sectional
[unused946]
ʰ
v6
mothers
་
²
##ny
##rell
##ef
##ᄆ
secret
whatever
remarks
adjusting
filippo
[unused155]
[unused43]
mario
fought
doo
##l
[unused568]
智
dripping
motel
shade
clancy
hodgson
dangers
manchu
野
atm
evolution
retire
malice
267
financial
los
worthless
198
##ghi
duty
gulp
padded
cs
montrose
##ে
[unused868]
##ն
receiving
zip
##rm
[unused148]
pierce
##ke
brisbane
flowed
proved
##thi
knoxville
aside
##ulous
allowing
substituted
##tsu
##¾
corpses
bangladesh
gardens
vibrations
curtis
[unused384]
salmon
ு
dictionary
diversity
##rable
their
discus
##tet
thanked
rhapsody
##wehr
haas
mad
[unused799]
[unused581]
willoughby
hon
lancashire
gloom
equestrian
russell
##physical
##erik
2004
seeming
came
[unused215]
1973
##nsky
hayden
churches
[unused68]
survival
grover
criticized
underway
solitude
staten
##gaon
conversion
aggregate
lena
instrument
dame
瀬
attorneys
hazardous
##lston
usb
##los
missing
limitations
##itic
assistant
##iled
heroine
##km
##า
magazine
##cre
slit
starters
antiquities
newark
[unused4]
lal
##vac
[unused734]
£2
harald
##gi
buffy
liverpool
##rat
garrett
ᴰ
reddish
roc
##oja
valuable
saetan
transformers
restrictive
assigns
ე
##neil
partnering
moravian
##א
irrelevant
inaccessible
##time
insulted
##bah
hoax
##iance
य
willingness
##berger
scientology
rice
##mura
##nx
similarly
synod
##pid
medial
vantage
modular
funky
snapped
##ch
floating
##ニ
မ
emmett
lp
##ool
gasps
kata
encourages
elliptic
mango
felt
enabled
twinkle
aid
adapting
##車
reginald
##rea
religions
causal
shri
motifs
##hh
blockbuster
lanes
1811
analytic
matched
mundane
1985
faces
##js
physically
hms
partial
南
sweeney
stresses
slash
[unused520]
##和
calgary
warmth
spp
vanuatu
outlets
॥
truncated
peninsular
printing
##kushima
astronomical
scare
paige
##org
##ulla
ste
ecole
owl
realities
306
laid
tna
[unused616]
##ⁿ
overlapping
possess
[unused414]
heinz
toured
gladstone
bala
##bel
ordinary
bull
malmo
adoptive
dell
reporting
limousine
##ael
dietary
##riety
tao
1873
jang
57th
ʿ
features
sikhs
summer
cdc
[unused286]
treaties
palms
yiddish
settling
##otho
mammals
uranium
numb
publication
255
recited
む
assisting
##emi
##tangled
##beam
sharp
lead
pork
##ulsion
confronting
zach
litter
[unused879]
mainland
pointe
##↓
pit
islander
##plin
compete
micro
[unused379]
##森
indeed
##inating
allegro
began
nepal
calabria
[unused745]
##jad
246
bo
pry
accounted
freak
courtship
condensed
quiz
abduction
punjabi
sales
rebirth
nguyen
₆
minute
shaky
willy
finn
walden
surname
##cene
##tam
pollock
touch
opt
[unused825]
folklore
brighter
clashes
##tson
restrict
##ount
##ghan
handler
brest
rights
environmental
domain
##₂
[unused157]
##block
##ctable
cascade
tractors
stockton
四
courts
isolation
hose
見
loading
wolfgang
buying
intrigued
ebony
hopefully
u
##cated
[unused52]
##tag
punt
##imo
water
surgeons
ᄏ
iowa
councillors
mariano
tn
kruger
##ᴵ
test
gabriel
clicked
satisfaction
blushed
##av
cameroon
kathleen
sable
[unused548]
confesses
##戦
wrestled
##zo
austrian
patel
sorted
##kulam
betray
peek
sonora
anticipating
canary
advised
respective
lexi
hired
legacy
dustin
##”
northeast
baronetcy
great
##mani
ammonia
dared
advance
metallic
mona
infrared
hiroshi
##ய
supply
weighing
mind
cousins
236
coached
##ended
vertices
toys
mcbride
wouldn
advocate
lord
regretted
[unused69]
staging
quintet
leak
280
[unused112]
alfonso
cyclists
##oons
macedonia
string
rectangular
1824
##mity
irina
800
logical
##llo
selecting
fuse
servicemen
connacht
brooding
treatment
secretly
##ffi
[unused857]
83
stagecoach
departing
achievements
warped
inventions
1726
tae
alton
papal
focal
##linson
signalling
reflects
substantially
instituto
##yeh
alcohol
[unused284]
russ
appointing
maxi
smell
chefs
lesser
diameter
instability
politics
snowy
stockport
reassured
##born
incline
residue
##aire
sold
1962
reproduction
##µ
##vances
coca
##ups
preferences
tourist
sr
traitor
##●
1740
##／
enduring
blended
thrust
approve
神
ள
backseat
greenville
urban
granting
##aceous
means
flexible
almost
##ᅦ
moth
pace
ronald
sided
superhero
philosopher
modernization
[unused177]
千
rios
poll
##zers
forthcoming
payload
martini
betrayed
##nai
ancestry
1778
##ᅡ
##torm
shout
addiction
stone
##ytic
##uki
357
156
every
mabel
hawthorne
crouch
##py
canon
later
bernard
ா
damages
flavor
doin
##genase
br
jeans
aliens
rests
ethics
unrelated
##gative
##ظ
switch
##dley
dolls
definitive
##kon
##inging
##illo
##nl
##ered
##ndi
##wear
waist
phd
##nca
commercials
[unused99]
lighting
##jin
##dh
##aldo
malaria
##正
giggled
[unused716]
brutal
[unused378]
difficulty
denton
studying
##layer
##ffey
spiders
aba
withdrawing
[unused309]
roughly
##oint
ivanov
[unused609]
middletown
behaved
catholics
paz
melville
[unused476]
systematic
##vana
solutions
##uti
tongue
##nus
##г
fearing
##utz
overboard
thrusts
nee
##au
trail
gameplay
wrestlemania
colleen
lower
owen
tossing
sly
sharpe
negatively
shivers
temper
scala
synchronized
[unused37]
squeeze
marred
objected
championships
cash
gogh
caspian
linux
shrieked
cyclic
musa
provides
contributor
1853
crashing
pick
workings
structurally
derry
polled
tires
terribly
walked
honey
friends
1755
spit
2003
chung
lazarus
tunisia
##lance
mania
worked
preferred
ᅵ
genetics
hd
unlock
井
area
photos
compassionate
〈
protestants
funding
bert
##chs
##ped
research
stationed
theologian
ω
##ado
##avi
##ং
mont
##anor
champions
board
nursery
spectacular
##zy
beverage
pitted
eddy
gifford
##camp
outnumbered
gothic
prints
responsible
##ided
took
units
##oides
venom
conde
gland
##hen
lunged
mckinley
mere
##պ
##nos
reg
[unused759]
tomorrow
doctors
jumps
sorrow
sumo
proficiency
pronounced
compatible
##ர
skin
ᴵ
slap
##chemist
standardization
academies
curved
ai
episode
16th
archie
compulsion
referencing
nestled
##frid
##inations
thanks
ecosystem
doll
satisfy
inverse
pilasters
ae
runs
superintendent
mandate
##beck
contrast
zulu
odyssey
synonym
[unused732]
##フ
[unused11]
ъ
closed
ff
other
losing
organic
##erus
gaunt
hyde
antoinette
dresden
##hale
[unused203]
##logic
partridge
##ffs
mor
markets
statue
##dre
smyth
brace
incurred
within
dart
toppled
icy
boss
##founded
1948
money
living
ot
reduction
authorized
##cock
moonlight
mortar
pictorial
indications
diana
heroin
squat
[unused150]
debra
located
bluegrass
dream
tomas
fiat
numbers
protests
verdict
harris
##rip
moderately
bearing
iroquois
##dened
[unused12]
pictures
instituted
bleed
##gins
##horpe
tendency
aspirations
fresco
aerodynamic
tehsil
avenue
##hang
ambushed
retro
##fine
anchors
capacity
tea
grips
sheet
thigh
groves
ﬂ
supplemented
[unused193]
[unused545]
but
credentials
##write
mountain
##ᆷ
grange
slaughtered
##test
banquet
maiden
publishes
##ctum
nomenclature
climbed
##etta
smarter
##lain
cheerleading
resignation
elderly
aware
fifteen
measures
fundamental
shadowed
立
isil
coupling
foreword
cues
borough
averaging
peters
enforce
bolts
inmate
settlers
theatres
makeup
242
debate
slowed
matches
artistic
masked
##sser
johan
competition
##osphere
class
availability
prowess
mongolia
rattling
gather
petersburg
##agawa
##for
ct
careless
honeymoon
##mana
methyl
[unused21]
stands
generosity
hectares
##imeter
##enity
[unused582]
paperback
pedestal
shamrock
witness
##yam
synthesizers
vibrating
showcases
##bi
[unused350]
sutton
boardwalk
owns
chemotherapy
hissing
sited
[unused88]
opens
peripheral
uses
chuck
visa
##tish
mackenzie
##zine
nate
um
coating
sparkle
tumble
##ciation
##hered
amiga
merritt
unofficially
organisms
runners
breakdown
##og
##lbert
unlocked
albuquerque
simpson
limo
autonomous
also
pursuant
##ლ
##！
contests
##zar
accession
choir
judy
bridgeport
raises
##hedral
anybody
natalia
##bour
##θ
columnist
varsity
bengals
##mber
##oge
unemployed
1729
unwilling
##ple
##nage
clark
influences
reissue
insignificant
participating
luftwaffe
heiress
##khan
strained
##dran
ptolemy
precipitation
##gu
hack
1880
mixtape
##croft
##promising
##氷
peerage
beef
insulation
pascal
era
青
taunting
steam
assault
trans
##nikov
erotic
difficulties
traced
tombstone
##eses
##pina
##rates
ɑ
intimately
obsession
westchester
insane
unsigned
##aid
scrolls
independently
lodge
abbott
banco
denial
cromwell
employee
[unused3]
[unused240]
tickets
##ʰ
listing
##ust
offering
promoted
balance
landon
vegetation
deficit
rainy
burrows
gonzales
412
lyrics
tangle
drains
representing
mutant
paul
shetland
lakshmi
deutsche
porto
vigorous
electronic
greater
weapons
sixteen
muted
subspecies
crisis
hank
##q
charted
yelling
##stems
consumer
scully
battles
truss
monumental
reflex
##ء
##ischen
crack
bays
cooler
capt
##wind
trumpeter
billions
⅓
##tip
«
whistle
hut
daphne
##sation
cambodia
[unused928]
knitting
delivered
pun
kemp
examiner
##ata
122
##achi
maj
lectures
diffusion
folded
pitched
christopher
arias
lankan
leiden
starvation
chennai
saskatoon
corp
recognizable
tragic
##cision
filing
arboretum
137
hence
##xes
##io
southampton
£1
used
##vin
##oy
reconciliation
commandant
nodded
cincinnati
fifteenth
##unds
tanya
##girl
generally
brothel
32
fabric
##if
affiliates
summon
##maid
ə
percent
brightest
##ष
##stand
halves
rest
concurrency
permanently
durham
between
gentle
dramatic
tree
distinction
picnic
rematch
regulars
proposes
civilian
restriction
shrugs
pen
mi
##ns
entertainment
siblings
substances
mat
##asia
facade
eyelashes
##ת
famed
##ogen
―
★
reprinted
##dion
larry
cho
creations
##mah
bertrand
##under
step
ལ
counts
lego
##tors
prompted
##oran
donate
405
840
##ﬁ
launched
calling
masks
elbow
mural
##rred
numbered
evan
##bil
artery
resulted
seattle
bedside
newt
sat
##going
210
reality
##গ
forbes
[unused782]
proportions
siren
prostitutes
##¡
whereabouts
##ill
sidewalk
groans
fascinating
newspaper
goddess
bavaria
alternating
magdalena
##unt
schleswig
reading
virginity
recipient
feasible
##v
##lav
hutchinson
##vie
wembley
mercedes
wheat
##hol
rockies
indoors
##iol
parc
prince
##yon
burma
228
##comb
sul
literal
translator
remained
stronger
loads
mansions
hemingway
sacramento
trek
「
dressed
struggled
##key
harold
[unused345]
hydraulic
flinched
##haya
abbreviation
[unused296]
nightmares
glances
imaginative
##roi
gdansk
##х
protege
friar
[unused837]
1808
302
##rill
boulders
twenty20
tour
deterioration
optimization
obedience
labyrinth
uefa
43rd
##¦
##jas
inviting
carrot
joe
tottenham
ethical
rust
weeks
##د
position
##ъ
##lma
navarre
[unused194]
春
##ost
meantime
eurovision
highs
[unused733]
р
maison
##llation
compiler
mirrored
##lia
##bian
bea
bare
##ख
##lau
biotechnology
##11
buenos
suffrage
mine
##ira
preacher
barney
##hof
seen
bug
##ko
butterfly
##rama
geoffrey
obligatory
yields
len
extract
egan
italia
##marine
additionally
##hil
carts
counting
lady
accusing
favourable
ernest
paranoid
finds
##ย
representatives
strategies
recognition
##had
hierarchy
junta
panicked
[MASK]
trash
inheritance
notation
beaver
[unused725]
##oe
postwar
sbs
poisoned
issued
weed
ville
measuring
project
ak
relocated
##rr
##analysis
lobby
displaying
ser
addressing
mohawk
##ers
under
clinging
newest
##lence
##ᅩ
personnel
kent
satisfied
##tree
counterpart
taxis
commended
benefactor
beating
pleasure
celtic
hermit
##פ
[unused812]
deter
jet
political
kilometres
topical
lobster
possibility
simple
chess
##aar
palette
swim
receptors
##ل
rockwell
##earing
substitutes
##jo
shone
journalists
メ
felicity
sworn
origins
##hurst
[unused677]
##ting
mustang
app
bombed
##sol
##uary
##dern
##ounded
cochrane
tuba
##arat
raising
frankfurt
intersection
##bbled
##hesive
sylvia
gemma
touchdown
stroking
guest
##rik
##tructing
plague
paragraph
##ct
texted
##tarian
thickness
addict
49th
##hli
[unused673]
bullet
##itaire
tandem
##bles
##lson
speed
##ime
weep
stamp
[unused223]
ceramics
reid
neglect
unconventional
##boats
wb
hirsch
spade
improved
mysteriously
329
depth
♣
##horse
simulate
##lices
[unused918]
partisan
panchayat
##30
fleetwood
ᵣ
clasped
monarchs
astronomers
ع
theresa
strands
flooded
[unused863]
qaeda
cosmopolitan
##ม
equals
credibility
staircase
pieces
[unused776]
vale
introducing
kabul
plaid
stir
sap
montagu
subsidies
hangs
clarence
##tel
husbands
lcd
operas
1649
##rone
subdistrict
pathetic
670
witches
armies
developers
countdown
john
carrier
##cko
##vc
##cans
where
[unused160]
widows
bonding
neared
olympus
enable
empowered
canberra
い
loyalists
letting
##コ
shivering
shielded
##hly
##sion
gould
##ʾ
fellows
##ᅥ
shaggy
cindy
graffiti
tobago
##tura
##hala
doping
dialect
payton
2012
##deh
hopper
sorcerer
##recht
示
疒
stainless
boom
beetle
foreign
northampton
sequel
##itive
##aneous
##bit
sahara
##ky
bribery
##手
histoire
science
##nais
##jord
fisher
basis
spirits
[unused542]
[unused95]
1966
premature
##stor
isabelle
couldn
subsequently
lyons
label
ob
westward
sniff
##meo
iqbal
曲
resolutions
##tum
cargo
sympathetic
dom
##jah
indirect
backlash
pregnant
managerial
toby
alderman
badge
[unused905]
##oa
chariot
divisions
##arding
##ect
[unused842]
vanity
spill
commemorative
relieved
outlines
annexed
##logies
uncredited
nutrition
##pton
tower
ufo
nrhp
stove
##arium
[unused172]
ideological
[unused558]
all
##ych
fullback
##º
opposes
iv
portraits
leg
guns
slipping
marino
##bner
levin
##イ
exemplary
certified
176
##ri
possessing
gujarat
relocate
proudly
bonnet
unnamed
maroon
felix
programmers
plaintiffs
##nin
ac
laying
##aith
arthritis
square
complete
slipped
grading
[unused481]
##force
statehood
##東
lending
army
brushes
tension
##aa
nara
elite
katrina
33rd
mn
##vish
doe
##ossa
ks
##kala
robotic
##eli
feeder
registered
discrimination
wills
##ded
chewed
paws
1835
##gun
##nsk
banging
ninety
##ead
internationale
9
tapes
sexually
events
sachs
strata
worlds
##alic
##cchi
destroyers
bosch
dessert
coloring
##rogen
##nah
transmitters
herzegovina
murmur
##elling
senegal
saved
alternatively
##som
##ross
vacation
spirit
transportation
##ctic
[unused963]
1762
##wark
##nh
explaining
tuition
vertigo
[unused631]
bartholomew
cultures
##sworth
##uso
─
swat
dal
##ieg
elk
hygiene
##aran
1857
frantic
999
nippon
concluded
meadows
devotion
risking
mt
fumble
freely
fabian
##ʊ
scholarly
##ђ
ill
triggers
1666
confederates
##lake
procedural
pike
，
junction
sumner
mack
bellamy
##hiro
##年
doi
arrows
deprived
derby
stricken
bharatiya
examine
implications
instances
passes
rehab
##code
bolshevik
##ostal
pauline
torpedoes
speeding
advising
arose
parma
cows
floral
asserts
317
##ad
##ße
clubhouse
kraft
armand
দ
novi
food
goodman
evergreen
attractive
mattered
occasion
froze
produced
##brick
jackson
compute
te
spartans
lordship
##itz
qualities
small
anticipation
redskins
##ples
ɹ
seventy
holster
kidnapped
cinnamon
operated
precious
coral
strawberry
[unused662]
caucasian
immortal
sophomore
##ista
consonants
tones
stalled
feminine
##hawks
[unused693]
[unused976]
wed
degree
unix
##cher
jai
continuous
webster
dukes
##orescence
successfully
^
[unused743]
dying
there
recovered
furlongs
°f
celtics
##connected
xi
##lates
ignored
asturias
delegates
##ح
##fulness
coma
impoverished
stepped
stylized
hammered
[unused556]
forster
promote
same
sponsors
gleaming
pledge
freelance
##400
ท
ms
anything
finch
carvings
##id
monthly
tick
linking
##lusion
54th
##心
goth
committee
1746
##diment
##mission
justified
honest
kidding
##ations
spurs
scientist
morals
##ɨ
germans
alliances
hyderabad
spiked
inhibitor
rustling
74
sirens
##etched
tumors
jars
leaps
##ization
tokugawa
47th
dylan
139
##ᵗ
idol
terry
moment
minister
crawford
espana
compare
convinced
sawmill
[unused824]
jack
[unused206]
wetland
exercises
fluttered
norman
##lism
after
sealing
respected
inspecting
##raction
inhabitants
##ility
identifying
polynomial
gabon
m3
##星
##per
##op
##ɡ
brewers
650
bison
regulatory
balloons
##也
[unused305]
uv
[unused200]
jacket
midwest
183
designations
##edd
tracker
##chuk
1697
##rno
shandong
westfield
lyric
rei
bt
smooth
1774
mendoza
[unused826]
gomez
romeo
molecule
stimulate
wildlife
[unused450]
rb
acid
tempting
feast
kan
##burg
takes
swap
##ck
kris
##har
universally
chant
canonical
nintendo
[unused977]
butter
romney
##antes
harvested
##च
emphasize
cooling
deepest
blooded
stripping
resin
poorly
bourbon
ears
275
orchard
bromwich
hosted
diagnosis
iucn
shooting
[unused420]
northwards
divided
nan
birth
thankful
##idia
prior
mccartney
millennium
##zal
stepmother
convert
snuggled
birthplace
pro
[unused508]
hearted
variables
unbearable
tiberius
layers
constance
[unused129]
##bolic
shed
##ン
[unused981]
suspended
coe
is
veil
##tub
[unused801]
conceived
##া
saturdays
exceeded
leyte
concurrent
hugs
omitted
purpose
inability
remodeled
plays
healing
maharaja
##apple
κ
##pile
foothills
border
taiwan
nod
shelby
vanilla
##ough
[unused394]
[unused914]
claim
lima
layne
aisles
shrinking
riga
eclipse
grab
##sure
closely
showing
hart
oven
blazers
tide
ready
vermont
haunting
streak
michaels
warehouse
halt
jd
corn
suspense
surfaces
indiana
1892
automatic
pas
joints
##غ
##پ
inherited
##⺼
overgrown
henri
enlist
##pit
##moor
weightlifting
##ept
seafood
##vera
arriving
able
barley
secretariat
[unused451]
stanton
##chner
constructing
##bm
julia
gerard
nicky
##ens
##list
##kas
argentina
attitude
grandparents
shu
##ᴺ
presiding
cloth
pointed
gradual
olsen
flew
rid
jaya
yanking
##gr
baroness
##dm
intercepted
chang
teresa
##good
psi
louder
boiler
metz
ussr
safari
barren
taped
wreath
##ners
hosts
outfit
grammatical
##ness
turing
hogan
apologize
disturbance
fitzroy
carry
kin
##eric
dumping
drury
big
amplifiers
rich
abrupt
bessie
correspondence
inner
##ero
merrill
joaquin
backbone
courage
##hum
##lp
primaries
fitz
lansing
either
thumb
seldom
rune
carnival
faust
invites
coli
mixes
diary
90s
proprietor
notices
fan
useful
lobbying
##mental
##rator
##tri
ceasefire
##と
interference
##rya
narrator
knight
1779
emil
viper
curt
animator
grafton
spire
##56
positive
##wright
[unused336]
powell
cheaper
previously
designation
##iard
sparsely
calais
shift
describe
demo
##ari
offences
current
reaper
trivial
vatican
##た
soy
horizon
retired
townsend
laden
##ilised
sermons
digit
comedies
[unused56]
studios
##titles
gradient
brow
##ов
scoffed
alarms
[PAD]
terrorism
##ⱼ
streets
##lles
##nosis
buckley
collegiate
membranes
##nger
partisans
¹⁄₂
##emon
sadie
##ʿ
sport
sienna
kinetic
lucha
##drik
nam
[unused409]
kassel
љ
[unused773]
rees
も
prc
艹
therapist
substantive
francaise
payment
1813
fortress
aisle
nueva
recognized
##scia
boilers
gallons
evidenced
laboratories
alike
vocational
skip
stirring
commissioning
basin
tired
shuffling
paint
products
tug
bien
1916
broadcaster
##स
euclidean
indictment
##tch
sporadic
52nd
₇
israeli
fitzpatrick
wrexham
flickering
vp
chased
iron
[unused321]
1795
は
realize
disappears
iris
pulsed
##df
##ags
biennale
##os
missions
##॥
cox
hall
roaring
watts
licensing
contributing
mla
ᵇ
jealous
sham
coyote
paris
##oration
##an
emerging
benfica
stains
metres
melvin
##lithic
264
routes
ы
[unused533]
considered
##і
##行
curb
equilibrium
broadcasts
seasonal
davenport
improvisation
against
nature
medicare
chargers
##utable
guards
twentieth
222
witnessing
coalition
##nes
trafficking
##zzo
excavations
##rter
##ters
184
panda
1709
政
organization
especially
educated
superfamily
##ent
##esis
##伊
burning
ar
speedway
control
kazakh
bari
pee
##lais
managers
nurses
assign
griffiths
thrill
##dos
##cin
transition
humour
bengali
revisited
nineteenth
##finder
##tis
ring
m
##ands
⟨
baku
distraction
gaped
typically
319
म
repair
oswald
spd
པ
～
weekend
violently
##ო
1737
deserves
satellites
nicknamed
kappa
shelters
##rin
spikes
##master
##chang
clement
displacement
server
##dalen
answering
offence
grossed
1
530
leasing
##tism
mcgee
##win
##eux
##slin
par
##ra
chorale
ו
lights
defense
##lor
##rika
immense
279
ष
##working
kenya
sting
transverse
proclaimed
##th
kevin
baggage
[unused440]
drug
rafe
para
mcgregor
ל
##emann
distinguished
any
prayer
##elle
alligator
ɪ
##frey
offense
cher
dauphin
junior
participates
[unused32]
documentaries
ferris
##ring
shield
gs
cod
##physics
hamid
side
though
gazed
turbo
tenth
swindon
spaceship
element
cans
aziz
##breaker
##tat
stu
submarines
incredibly
##ota
brock
1750
tight
lucrative
##cute
devotees
eruptions
##;
##abad
encouragement
pricing
♭
1b
zombies
careers
falls
auditorium
announced
coastal
conventional
trim
##rued
withdraw
corporation
sent
##cent
garment
ᆯ
minions
netherlands
05
cartoon
strokes
tyler
##enary
148
squads
upscale
⇄
contestant
tastes
##rao
right
landscaping
bidding
floods
ludwig
granada
##lmer
iranian
##cture
nantes
[unused967]
bypass
groningen
reassigned
steve
invasive
lister
depot
##－
squire
##rove
reuben
hee
##kata
70th
##gio
metropolitan
61
##pre
bois
souza
gigs
[unused653]
enclosed
9th
airborne
wildcats
zoo
207
[unused982]
rob
tuberculosis
ineligible
archeological
[unused788]
capsule
##phobia
reinforcements
94
genera
fulfillment
##ffin
##ffen
portray
delightful
barbarian
service
peering
juniper
rejoin
##elin
mathias
peabody
goal
paved
singles
gerald
sitcom
х
collection
##tham
petitions
networking
moves
bombs
defend
signaled
##cise
ghost
kara
similarities
supervising
##say
defeating
asserting
entrepreneurs
##bahn
commemoration
##25
motion
speaking
stall
##ppel
kv
offer
blast
administered
thrive
utopia
visuals
napkin
occurring
jessie
visionary
##nse
bobby
[unused630]
rank
weir
instrumentalist
ʎ
look
blame
classic
sussex
##天
represented
southern
\
prodigy
sweaty
rotational
celebrity
nwa
cynthia
dated
barrister
sharks
merlin
##istles
dax
principles
novelist
concerned
chart
mandatory
##lda
illusion
##ault
destiny
constitutes
seymour
villagers
##itung
howard
thyroid
interests
knives
successors
refuses
wellington
lds
##ggs
barons
##yer
recruiting
sultanate
vigorously
valued
demonic
##hiff
brunei
tipped
observer
poked
injuring
southend
the
ascent
##inated
##ering
added
##rained
clicking
engraved
electron
cure
accordion
pledged
ethanol
14th
baha
massive
nas
grant
knit
1623
soluble
exaggerated
sesame
ʼ
phenomena
predictable
face
##eim
brennan
182
obituary
charm
restructuring
comprehend
hard
collarbone
[unused853]
engulfed
##ssen
##،
graves
knocks
cha
710
##aka
[unused145]
shuttle
fox
flynn
wells
hesitate
artworks
soaring
clapping
removed
comedians
##lity
conical
nazareth
muzzle
gp
monsoon
draws
provisional
legged
swirling
reactor
welch
arizona
##ensburg
timmy
imagination
##陽
##burn
consolidate
abbey
ruin
rhythm
regulated
mentioned
ives
rained
heated
blocks
destroyed
##tin
##tance
訁
jayne
simpler
feel
ist
turnpike
##wes
show
##opers
salary
flight
##主
[unused661]
prehistoric
pursued
##adan
miles
american
##aan
##mt
result
order
accountable
privy
hurrying
glow
innsbruck
imagine
dishes
##kura
##不
eton
}
##ress
urdu
bella
congressman
wild
relaxing
graham
uber
fallon
coliseum
grazing
almond
dante
lasts
mentally
mick
##nae
!
perspective
maddox
assassinate
ottoman
fees
readily
##ired
diabetes
##bler
require
##thesis
nonetheless
remorse
##piration
technique
girls
##pped
##jon
[unused257]
##tment
faber
breakthrough
##rington
vortex
ahead
actress
〜
matilda
picturesque
##ay
headlights
##cats
##uming
1893
baskets
peshawar
##no
portable
shimmering
shoulder
##urne
sports
##rca
distributors
embryo
occasions
actor
##like
president
tristan
adopt
holloway
##aur
amplified
##ats
wavelengths
termination
λ
##pis
escape
brush
##bright
ag
bosses
1933
manipulated
valencia
##mler
dealt
kitty
##tery
ᄐ
##dman
##athing
##gn
commission
persons
hugging
ج
##ν
unhappy
##都
lean
blue
superficial
fm
twinned
townsville
haiti
mining
casually
presented
frankie
freyja
intellectuals
##urt
roster
ian
planner
fraction
boarding
corona
originate
peugeot
suspect
capitalist
intuition
##gall
rediscovered
woken
split
model
obe
foliage
staged
woolf
china
inscribed
determines
kensington
skating
posted
##sbury
##chison
collective
meeting
equations
yoo
italianate
panties
contentious
##oum
lowest
eric
anglo
[unused606]
volunteers
ash
idf
strangely
[unused984]
wagon
automobiles
recipe
janeiro
crowe
slade
conductors
gratitude
01
ducked
##ln
emperor
schwarz
raleigh
directors
##and
chopin
servers
aquatic
##sboro
waterfall
loud
leonid
ne
tattoo
forced
minerals
262
success
protection
transatlantic
issue
vii
deer
fuels
allied
ћ
shiva
papacy
starved
concurrently
##rest
guidelines
lap
reputed
mandir
[unused354]
lyon
[unused816]
archangel
robbers
per
un
##verance
dc
10
amazed
gurney
##ako
shattering
##nery
swiftly
racer
langdon
memoirs
rabbis
belle
libre
soaking
caden
chronicle
or
dumped
##tland
##omo
##zano
##tsk
##ots
ella
[unused231]
##dor
##breakers
jamaican
##ament
##umi
ю
psychiatrist
asahi
synthetic
longer
##nton
dubious
ᆸ
witnessed
commodities
##ी
##ification
harsh
achieve
candi
lying
commando
fighters
stifled
1870s
sidney
マ
guiding
leicester
y
reykjavik
flinch
165
overrun
##zon
##cation
committed
##ส
trait
upgrading
##vn
##歌
##sir
pd
[unused841]
cancelled
having
aboriginal
##wives
sculptor
cute
armagh
##sibility
##ɒ
د
manually
toad
doug
##tase
##cam
##kling
介
1970
##aker
marsden
indicating
geoff
##ico
chasing
mixing
surrendered
respecting
cerambycidae
##vert
121
usaf
underwent
cpc
##bek
360
prayers
##anna
clutching
slapped
participant
fungus
##tangle
##mmer
madeline
illustrious
walkway
rt
cast
##ga
milford
ferrer
albania
sacked
induce
conrad
posting
##ₚ
clermont
myra
##tituted
[unused290]
##guard
animated
marketed
古
settles
danes
tone
sliced
unnatural
aw
bilbao
thread
grateful
##⁸
##dier
##vent
released
[unused711]
universal
bending
objectives
##chment
op
##ulf
realised
agency
maximal
##xley
1952
widened
epithet
##י
pile
##t
seals
##hae
confession
percival
武
##ified
trades
sakura
sql
harmonica
ligand
novo
##sphere
given
rbis
b1
behavioral
eliminate
##hn
containing
drilling
trunks
yep
implying
blond
cruise
[unused210]
palo
arbor
##enting
followers
cook
bolivia
[unused459]
cannons
archaeological
financed
follower
elaine
cheeks
eighteen
##osition
152
helium
galician
我
pius
##。
##ttes
accepted
##dition
elisabeth
ronnie
##etic
##ece
劉
secession
28th
paranormal
poems
mitchell
##ध
1890
##rogate
[unused521]
implies
jeep
unused
inaugurated
complications
regulators
##mpt
##rai
##目
referred
grabbed
##tered
guantanamo
harrow
⇌
highest
wipe
equipment
pioneered
##erin
##pers
orioles
##こ
jimmy
laughing
[unused477]
electorate
bodyguard
acids
##ometer
guggenheim
[unused833]
##ieving
toward
##icide
teens
algae
skeleton
tammy
intensity
##bank
cabinets
greens
##llar
bohemian
education
larson
radial
duchess
##tails
##ition
25th
[unused912]
lopez
parted
enlightenment
narrowed
consists
interventions
fremantle
770
associations
jin
ট
hornets
deception
portrays
fifth
sis
brushing
leary
investigations
##fell
##tua
##ocytes
initiatives
pop
su
chooses
shooters
chloe
hilary
brianna
collects
caps
##cton
warship
pulitzer
adversary
anthropologist
ᅪ
##flower
##45
colt
growling
whoever
regulation
tan
acoustic
dynamics
mira
guarantees
genie
santos
##ears
##:
engravings
bedroom
rochelle
1902
phenomenon
##zz
1944
stations
cn
page
media
merchants
parole
reckon
quantum
34
##etti
departure
##vo
##aman
prolonged
bastards
bills
convex
flemish
winged
surfaced
chiang
philharmonic
hardcore
parlor
marjorie
##ᵇ
helicopter
templar
mod
hurts
siding
##ison
diplomats
olivier
vineyard
##lous
##ailing
##প
information
unified
dmitri
wavelength
rm
fluctuations
shootout
dunn
##opsis
restaurant
vincenzo
##iani
##vel
cognitive
racks
harrisburg
[unused943]
returned
##optera
[unused771]
firth
##a1
weekends
marcus
czechoslovakia
enters
##ikh
oceans
coyotes
##ゆ
propaganda
insides
accommodation
fuscous
2d
bruins
invalid
hints
governor
periodical
fur
peasants
##aries
harmony
suburbs
bared
publicized
##uppe
##izer
stand
unions
consecrated
government
loyal
emphasizes
tyres
spawning
unveiled
pact
[unused36]
[unused876]
名
##ister
ara
dew
[unused113]
##ox
[unused627]
[unused897]
views
##dur
##gram
♥
sleeve
treating
##vies
coined
##ina
##ivision
correspond
##cker
##(
hydrogen
bushes
nme
ক
charred
still
tracey
##公
6000
campaigns
##40
minded
ة
##ieri
retorted
bulging
##rites
physician
physiology
swords
next
portico
strasbourg
generations
osaka
geologist
county
amin
া
training
unsure
pigs
spans
chaplain
movie
mei
labourers
dale
##œ
##lander
progressed
tricked
fists
systematically
centimeters
je
borrowing
signing
trigger
hepatitis
dining
##lou
tonic
purity
newscasts
seal
196
america
textual
[unused436]
##form
##smo
motorola
##zio
woodward
##lifting
fatally
##crat
relate
[unused364]
unison
[unused16]
ankle
bmg
grimsby
mediterranean
[unused966]
striped
yu
webber
committing
mickey
schedule
ryder
swallowed
yahoo
removing
nr
burger
congress
regulations
rd
sideways
musik
releases
pond
[unused563]
##ш
##fu
##≥
[unused480]
cinema
attracts
drown
##/
internacional
brad
happened
believe
treated
forearms
rumor
appearance
incomplete
generation
nobody
##lke
ᅢ
コ
texture
pembroke
[unused639]
cadillac
naia
footing
injunction
nosed
handful
##43
beatrice
##grade
kidnap
upside
transforming
##poo
tuning
##র
cape
payments
pasha
##tated
associate
films
preparations
##gnon
eligible
bathed
vintage
##wc
jacques
hawk
salle
deposition
stem
[unused659]
hugely
jo
ban
stack
comeback
elmer
aft
##al
##erland
bladder
pepsi
choi
specialization
occupying
precinct
fred
barns
someplace
##graph
##sh
##rc
rudolph
apparel
ת
##cus
heavyweight
joyce
ads
starting
reign
colorado
##hall
owing
glen
masses
fried
compromised
heterosexual
does
trembling
dozen
socialism
[unused295]
forestry
ur
zhou
##boarding
vu
1895
[unused183]
weber
yong
stays
raoul
##27
##வ
became
luggage
##ð
commons
##kian
lisa
blind
interactions
shack
administrators
illustrate
savior
1990s
starr
signs
##eo
ケ
sincerely
bao
inward
impulse
##tell
pulp
harlan
[unused427]
creek
upper
sings
vickers
sarawak
supporting
戸
##dy
rail
planned
smile
attribute
[unused698]
chocolate
authorization
did
elm
trevor
defensive
cyrillic
##iae
##rang
drawers
adjust
##udge
##nat
homework
whimper
[unused59]
potent
closest
stealing
##roid
haunted
suppliers
mutual
shriek
gate
द
grandpa
heritage
riding
##ju
jude
230
kick
hierarchical
existed
##ণ
tropical
addressed
catch
farming
tong
technician
##、
[unused426]
##ub
##cure
nun
peruvian
primary
disturbances
##abi
studio
introduces
generals
que
light
##glass
xml
evelyn
kettle
judas
search
defining
ponds
保
exposing
browne
##mbs
conan
nirvana
races
whorls
[unused245]
accidents
##pe
staff
patches
陳
predict
lille
loch
[unused737]
townland
symbolic
bergen
global
##sf
brit
##merie
assassin
massachusetts
moaning
##inium
festival
win
430
##‖
##xa
wedge
peaceful
[unused703]
##mic
travellers
ana
countless
successive
##ppa
larkin
stumbling
excellent
axes
001
##athic
taut
description
montreal
comprehensive
clipped
##−
nationalities
neutron
uppsala
modernized
##idal
##erly
abroad
curious
unreliable
honored
phi
##llas
moist
phillies
1663
booster
##⊆
bodied
burgess
blossom
sociologist
processed
##ony
##sett
forerunner
havilland
colombo
##ation
bugs
auditioned
gunners
roadway
##oir
islamist
wheel
ancient
characterization
dept
##ici
keyboard
fisherman
perpendicular
##station
radically
##dini
questioned
fangs
breeding
tournament
tubes
louisiana
conserved
##itative
[unused549]
を
coventry
schumacher
##zia
[unused827]
praises
salamanca
belonged
promotion
collapsed
furthermore
teasing
fiercely
instant
ellington
ს
basket
##nsed
cozy
grouped
airbus
barbed
skins
denoted
rituals
guam
prima
arid
chord
straight
delicate
nothing
transparency
moat
##二
redistribution
furnace
suspicious
doubtful
[unused774]
jan
projected
##cule
disconnected
commentary
arranged
launching
peat
bankrupt
disposal
##rf
##nnis
alloys
arise
congregation
gently
rabbits
##uising
agenda
augusto
affluent
joyah
56
faye
byrne
devi
vomiting
capcom
##broken
packets
britten
duluth
weaken
nominees
uniforms
scarcely
hundred
1911
mythological
accessory
կ
commit
tucson
hallway
##gible
258
individuals
prelate
ecological
##ner
rejoined
deportivo
1722
parcels
overland
##：
##otti
mood
collapsing
325
##ム
warmed
math
##艹
比
[unused392]
##nd
ʻ
socially
brigadier
[unused473]
15
outer
competing
##জ
293
dynamite
kingdom
bon
hiram
interviewing
[unused338]
calder
fridays
saxophonist
##ctuated
troy
explains
ava
##46
chuckle
disrupted
chronological
##ی
dementia
##rley
asked
approaching
reported
try
##pressed
cv
##pps
##ˡ
cesare
fi
alma
##ener
bankers
##sky
mouthed
colony
amphibious
##ucci
forum
photo
clusters
1300
guide
assignments
marcelo
tunnels
catalonia
##tens
turbine
dual
tariffs
locals
descendants
full
beta
[unused557]
ბ
codes
##ava
hartford
novak
memorandum
stimuli
swallows
##hone
kurt
##ই
smeared
canal
famine
tracks
warmer
fares
##uth
supporter
ivan
pray
sacrifice
enterprise
allan
structural
男
carving
pens
vibrated
チ
tactics
afternoon
vegetarian
urine
│
##ᴬ
1700
learned
showered
watched
subsp
##¿
thorough
211
##к
lastly
##200
##24
¦
whose
289
world
sergio
existent
greece
orthodoxy
freaks
nationality
sprint
sarcastic
severity
straining
##apes
euros
tanzania
juice
remembrance
戦
##ী
##ら
partition
kannada
##enay
geraldine
spruce
inform
whitish
##henko
lurking
##智
tapping
decorative
asbestos
sort
bow
秀
sparked
##uder
involving
spanning
の
venezuela
overtime
dorm
##rte
rollins
##dance
##म
promoting
carlo
games
dolphin
##kt
breaker
incense
sets
synth
stephen
sunday
beauty
##lver
annie
greeks
engraving
vito
bentley
heck
gm
loaf
##med
waits
incentives
eireann
barbarians
back
gutierrez
gmina
fragment
swiss
davy
saying
nakamura
troopers
##asa
อ
63
##bella
##ider
adriatic
##ilation
ף
rajasthan
disclosed
banking
biblical
mirage
cleavage
unopposed
##hein
##vite
cafeteria
##eron
1658
fowler
glowing
everyone
##bling
ripple
##ষ
##eem
rebellion
augmented
cocky
##eley
gunpowder
densely
teach
groundbreaking
supporters
##isance
empty
viola
##ouin
decides
novelty
gupta
barge
##top
##abe
menace
economical
armored
##del
peaking
harry
##mont
##sms
yoon
##pet
muscled
##44
newbury
sediment
coulter
defines
shouting
johanna
monroe
accounting
[unused498]
poverty
humiliation
lucivar
almeida
##tore
lingering
##ington
stew
elsie
##a
jiangsu
blossoms
fitzgerald
concerns
gilded
rejecting
somme
massey
##late
[unused877]
##ය
winkler
1730
hungarians
verse
##jit
antrim
nicholas
natural
talented
##core
lowers
##義
kira
blues
ringing
militant
clerks
doomed
[unused444]
ssr
simulated
approximately
##nail
reveals
##chman
##sed
jesuit
[unused442]
jensen
edible
operational
₈
reserve
[unused307]
crawled
sans
rise
hurst
flanagan
newsletter
native
chester
huron
roots
johnnie
captivity
##sz
annum
mainstream
##ull
hummed
marian
sparks
reminder
concussion
competence
##劉
affects
spaced
福
factors
[unused886]
x
##tute
parody
て
strand
mounds
modify
##mins
guarding
scuba
cared
prevents
kramer
##ce
390
tenderness
[unused489]
clips
vijay
grim
projections
marissa
privately
[unused405]
##athlon
messiah
dominates
byu
06
straw
environment
watt
measurements
##ifer
জ
consequence
golden
influencing
personal
##wart
cupped
cyclones
shane
attacking
##lings
derivatives
pcs
fourteen
scope
anita
veracruz
ranks
meaningless
lumber
persisted
##riation
windmill
fade
ensign
unpopular
bowling
justify
viral
##quay
[unused331]
urge
car
caldwell
tuned
interpreter
enthusiast
cb
dry
1879
##ede
moi
demographic
intellectual
georges
slated
ན
ʀ
remarked
lover
nashville
lanterns
[unused714]
brightened
stat
##urance
list
vessels
carpathian
frogs
ty
gibbs
gallo
goofy
fear
coordinating
kinda
york
contrasted
##uding
istanbul
airfield
##phs
meaning
##四
commanding
wurttemberg
ร
pacing
##cia
山
##tze
figures
##ice
timbers
notions
casimir
genevieve
fossil
shields
334
hi
listened
##ulates
wah
afterlife
##‡
##olar
##zation
creamy
haired
1628
1710
highlanders
321
refined
loire
fredrik
frequented
pitcher
don
bye
elliott
wore
circa
migrant
orbiting
installations
maximilian
mastering
introductions
##cz
nathaniel
pam
##lland
##lok
denominations
sultan
stabilized
##ai
chewing
tt
levine
sandwich
reza
albanian
•
bradford
stil
agra
edinburgh
abbreviated
pipeline
lines
earliest
wentworth
cosmetics
swings
quad
assimilation
depicted
barcelona
trustees
##icz
robyn
##த
todd
prestige
flashing
rehabilitation
destructive
sourced
##enas
empire
theoretically
overture
rainer
discrete
equatorial
mar
rhode
crap
bahn
literary
usd
militia
gibbons
muscle
tomatoes
##gens
witnesses
##vis
##fat
sponsoring
##ᆯ
##cho
potato
spell
##card
[unused894]
attributed
##fin
circumstance
precisely
schooling
xl
historically
##ᵖ
##culus
digging
[unused944]
hanoi
1931
margins
##down
synthesized
worm
erik
09
jing
iaaf
persuasion
nasa
challenged
believer
cyrus
teenager
mala
malcolm
klein
##sle
##ɪ
kun
contained
filmed
##ulously
crop
windows
ambulance
weary
these
variable
##active
dynasties
##making
comedian
mindanao
presenter
jungle
##nting
##wei
judaism
[unused363]
fell
##chua
promotional
##同
brigham
forever
##ection
1817
kelvin
gan
soundtrack
1844
consist
thin
70s
า
←
o
roosevelt
##matic
1794
##น
realm
joseph
##yard
indo
potassium
hernandez
popularly
mark
abyss
##ote
[unused578]
hourly
hai
ami
dawson
useless
adventist
emergency
pitt
tabitha
believing
ted
collaborated
consolidated
##∈
##um
disco
##gne
develop
##points
crews
##gli
[unused642]
dismissal
operator
grandfather
##tadt
rallies
##dant
plagued
propose
##nall
notes
[unused705]
australian
demonstration
ga
##あ
##ilo
fleet
joint
atlantic
##tt
##mie
vivid
humor
sicilian
lafayette
branded
hands
financially
cubic
slain
年
##bre
bee
##icative
refugees
requesting
hebrew
kota
##成
possessions
[unused654]
##itical
##des
##љ
emory
tally
##kam
##line
goaltender
vectors
malls
archway
aquino
##hosh
1934
passageway
pleasing
exam
presents
rainbow
implemented
continued
##nel
##tly
snoop
iconic
त
white
treasure
ashby
felicia
[unused38]
##de
faults
##，
dim
odisha
vane
##schen
##’
eternal
tripoli
resolving
dinners
marriott
beyond
navigate
##iform
leaves
expanse
farmland
maccabi
constraint
∧
##lace
mets
carol
borg
claude
holmes
##nar
scouts
offended
blinding
##ত
predicted
ャ
stade
obsolete
jeopardy
directory
##tory
gripped
feminism
predominant
slate
sizable
atom
buttons
thy
babylonian
enforcement
queer
grupo
rational
##is
diving
ballot
leinster
runway
specify
##erton
collar
absence
##fra
##む
molded
gesture
[unused772]
grace
##ever
biscuits
folly
enrolled
towels
audio
##秋
##ᄌ
kat
redhead
rude
##eering
aground
admitted
jennie
##ھ
uncovered
disclose
colon
##aged
columbus
##eter
mute
escorted
salaries
dyed
liberated
matteo
178
326
selective
##veda
organize
☆
theatre
barnsley
dome
carolyn
bouncing
##宿
##ando
clustered
##urst
martina
sails
barry
columbian
190
sailed
learns
fulfilled
##uy
##esses
jasper
marlon
##listic
taunton
capitol
##quist
lay
sudan
254
woke
##alle
communication
earthquake
activate
##hul
##ज
##xt
contra
##ᶜ
punjab
bike
nsw
251
fcc
forward
clan
effectiveness
hbo
teammates
slovene
false
medina
ejected
ornaments
silvio
entry
[unused500]
ankles
round
telecast
##sberg
newell
##keepers
bishops
compartments
barnard
formulation
cause
nut
firearms
crocodile
commits
alumni
leonardo
verb
##antly
60th
##dim
devices
gown
scenarios
magical
belt
terrific
##ailed
##ractive
coming
##holz
ロ
##pies
dover
confidence
shanghai
lithuanian
livelihood
explored
dominated
bucket
jug
[unused959]
cinemas
minds
comfortable
##idi
biochemistry
oxidation
derivative
january
##oted
extremes
249
groundwater
[unused789]
##rok
tatum
surveys
bismarck
monster
drives
healthcare
mig
##aghan
##strel
hello
pearls
altered
materials
##nen
syrian
airplane
transports
copenhagen
[unused724]
cloudy
envy
assure
##ki
grunt
rhymes
##mbled
regency
angola
becker
bowie
localities
mechanized
aquitaine
pickup
gigantic
reynolds
establishments
aqua
express
hedge
taxi
arising
1805
hat
##crats
shapiro
blackish
flow
##lvis
feared
1981
##sies
stop
##郡
jacksonville
detector
fearful
bsc
##ogenic
slept
tentative
י
##ods
commentaries
ر
consumed
##ry
patrick
manufactures
##iers
burnt
interacting
true
##hiko
##ously
motions
constrained
resigned
clarified
##be
[unused34]
amenities
[unused597]
machines
##gur
[unused797]
august
plant
surprisingly
sweet
##ˈ
forest
horde
cassie
reservoirs
perched
stephens
guessed
mock
heightened
witchcraft
##mund
feldman
##atal
nonsense
warily
##uron
##dock
##pts
tripped
awaited
trimmed
##प
trilogy
comforting
talbot
achievement
respect
peeked
385
aegean
gore
flop
seem
injury
benefit
titular
telling
auburn
##rar
buckled
##town
cicero
processing
danced
contaminated
##lz
shares
fielding
waking
##gies
261
crabs
##ᄐ
choreography
##illon
ezra
yorkshire
often
sixth
sabres
accidentally
beau
ョ
command
##hian
##lite
marxism
mb
[unused992]
mystical
##福
corps
negotiating
contract
##軍
defendant
suffix
domes
1793
downing
week
stilled
rumors
mildly
questioning
resemble
satan
##gy
claudius
netting
playstation
stallion
quo
an
con
159
sleep
vip
##ɣ
even
97
kazan
radios
bundled
apples
adapt
hook
emilia
##с
risen
##ᵘ
electoral
##mers
##vy
pilots
bryan
devised
rugged
##thest
yearbook
presenters
1656
guadalupe
half
ransom
##olt
montgomery
modernist
240
mouth
##lei
salazar
turbulence
##eran
americana
seventies
##そ
drawn
)
trumpet
elbows
3000
##lling
breast
plastics
[unused529]
ganga
touring
survives
##ading
ein
compassion
handed
derrick
[unused89]
##nche
##mament
secluded
quoting
124
weave
flex
surprises
100
architectural
optimal
stairs
integral
concludes
nearly
physiological
endangered
##ining
wind
kimberley
eucalyptus
bass
[unused544]
spitfire
##trip
animal
##kus
##rchy
robbins
croatia
1928
##kle
theoretical
scrap
bonaparte
500
acquisitions
entertainer
antics
titled
posed
##sun
belts
pistol
##itan
particular
roam
resultant
beforehand
ching
pebbles
email
wnba
kwan
##uta
311
⁵
developing
relation
susceptible
pops
##ade
##back
##jana
pioneering
recess
[unused986]
##erence
ontario
lick
occupational
##生
freezing
expanding
ख
bridge
bid
##hrer
##rem
orthogonal
abby
bands
symphonic
ruined
asleep
metro
analytics
##bedo
fossils
both
institutions
##zong
##die
আ
relationship
eps
placed
robert
gymnast
translate
##ᵒ
strive
##all
##lic
puts
yates
fallout
columbia
##dom
##mbit
estate
paces
whereupon
1758
quicker
renumbered
bodo
tissues
##viere
la
##∆
canadiens
##₉
mortality
[unused547]
sober
claire
violated
##ls
demise
cost
vimes
##rcus
平
carrie
moldova
stumble
siegel
##vine
gentlemen
bun
alfredo
[unused170]
milan
tearing
##rrie
quickly
143
rubbing
parade
grabs
stupid
µ
mint
##xton
probably
##ii
heraldic
evil
giro
haynes
##fight
subsequent
##can
##ssion
variety
##unciation
wakefield
##ality
streamlined
pedersen
mud
[unused760]
ק
њ
licence
##12
##rse
wet
12
fl
##rrado
ministerial
##uin
shops
purcell
##ப
vicente
##yme
##100
buried
postponed
tuna
##辶
eaten
charlton
bang
pathway
gel
crooked
migration
sheets
##amine
cruising
し
purely
consuming
leaped
##chai
214
1801
butch
italiana
signed
##tive
textures
##ث
ramsay
##zier
fabricated
billionaire
airports
luton
mortally
town
honestly
[unused524]
flames
probe
##formed
overly
physicians
patna
orton
ル
[unused834]
complimented
weakly
youtube
dignity
widening
##est
miriam
##nesian
bbc
[unused422]
##|
demands
storyline
two
##rative
defeat
employing
electronics
disgrace
macarthur
washing
##gling
lawful
gifted
crown
geographic
fleeing
kirk
jem
##ees
velvet
faso
branch
##rt
sculpted
empires
##rks
topped
jews
confinement
nyu
##cup
following
statutory
##br
ten
##jun
leonard
midnight
trials
disaster
discovering
whales
hissed
purposes
vest
miscellaneous
rallied
healer
stint
##entation
ᵃ
juveniles
valentine
rumble
indifferent
spot
z
sean
##las
##used
pressures
1997
pseudo
louisa
babu
plunging
armenia
##ady
trading
finnish
news
##landa
upset
eliot
##উ
analyzed
##lino
##rion
ක
hp
herds
prisons
[unused396]
##sic
##rations
pyrenees
examines
[unused474]
proposals
detachments
awesome
stunt
[unused804]
parishes
1630
suppress
perez
courtney
deity
terrorists
limitation
##loid
leases
whitehall
var
equator
impressive
##rmin
##rong
slab
confusing
unfortunate
perished
delivers
barnet
##bial
[unused635]
atlantis
subtly
##tto
296
identifiable
symbol
d
indy
ছ
shocks
erica
##ط
slightly
guitars
moscow
naturalist
beheaded
pat
intense
laureate
##biology
buick
constraints
dorsal
grimaced
##tsa
amalgamated
transaction
egyptians
congestion
ravine
greg
engaged
lionel
##ს
rent
horrified
checking
pods
almighty
array
##rate
##buch
[unused658]
##ted
andres
prostate
gangs
sardinia
efficacy
solved
1200
##cky
anastasia
freed
declan
##aint
##valent
##ӏ
apocalyptic
ho
smelled
outcomes
adaptations
vow
astronomer
[unused114]
##llary
jimi
shay
22
sleeping
##ythe
nationale
palestinian
serve
undisclosed
overshadowed
##mill
mythology
п
boring
tai
benches
##vable
xx
soup
treason
##inates
started
[unused273]
##film
commissioners
hal
barnes
contrasting
dwarf
1900
[unused67]
##vision
calculate
catalan
##icles
fen
™
exhibited
2015
armistice
animals
##mona
arrangements
treatments
lowering
repetitive
helens
yes
pitches
pianos
subtle
##efe
ix
ceded
gina
catalytic
municipal
dhaka
##iz
arcs
巿
##भ
02
ren
vogue
目
advice
##osomal
rap
baby
protesters
reflected
dissipated
##anian
refit
##uca
alison
bald
richest
[unused19]
weaknesses
##ła
mortals
conducted
bird
##lus
stamps
nose
##dan
left
extensions
edmond
lend
stated
pantry
fertility
encouraged
kickoff
serge
shit
around
reused
exited
calmly
civilized
##run
##五
spider
1600
unfit
leagues
halle
crystalline
restore
researches
historians
railways
someday
defender
##क
escaped
dec
##示
##xie
conservatory
valle
pleas
avery
##ds
regular
leased
wwii
cheered
nur
foster
export
##მ
hemisphere
goodnight
unpredictable
kissing
offshore
vehicle
cotton
##会
##hey
龍
investigation
og
pony
yorker
tap
[unused226]
whisper
eden
stella
microphone
nissan
transit
ind
graphical
lane
sector
505
finish
backstage
##quette
テ
[unused532]
##una
scanning
not
toilet
kendra
from
[unused874]
surveyed
beneficial
[unused271]
wax
corridors
earrings
breton
intentions
icao
frankenstein
federal
scenes
##rel
impose
##ifice
[unused26]
##ley
robinson
encoded
subscribers
commerce
favorable
[unused315]
mystic
bacterium
##dust
##pr
ল
##pura
twisting
practitioners
philosophy
reception
musee
killer
##ege
assessing
##miya
coconut
equal
ᆷ
findings
jeffrey
herd
centralized
squeak
emerald
duncan
##rier
gods
see
chaos
career
resonance
##tana
##ј
ta
ecosystems
provide
commented
tombs
##bine
battle
##maker
olson
[unused588]
adelaide
weak
##90
shapes
##w
merits
[unused899]
included
cao
tamil
[unused665]
fault
##ingham
loss
uzbekistan
##git
taekwondo
hampson
receive
wryly
##cd
subjective
spotlight
pavement
dahl
michele
phones
noises
zagreb
threaten
##₱
食
inch
bot
locomotives
merchant
mimic
stationary
centro
##sper
##yin
commissions
lobes
[unused447]
ardent
clergy
##able
##ark
among
downstairs
myanmar
##toy
removes
pantheon
ك
tramway
hartman
filly
gorgeous
holly
directly
forewings
stake
algebra
locking
null
premiered
overall
##vey
rebellious
midst
breached
embarrassment
thornton
advocacy
enjoys
midi
sovereignty
flooding
experimented
interpreting
laguna
basins
##rmed
є
explicit
force
##made
newtown
km
suriname
bandit
peanuts
royals
[unused880]
eighties
##birds
gallantry
issn
caressing
calderon
rage
mendez
arab
monte
charges
##ute
[UNK]
bromley
reeves
##›
pueblo
##mute
calculation
forty
sao
educating
quantity
##itate
cbe
regarded
1845
denounced
inning
mackay
archbishop
substrate
bright
fremont
##cratic
torches
saddam
degrees
##ei
##mu
black
dependency
thrusting
barton
##xide
baptised
rodgers
##uled
##dium
neighbourhood
sellers
scales
32nd
tyrone
illustrator
slayer
miracle
sources
##ged
##tropical
л
replication
vicar
untouched
altitude
##itarian
brought
candy
aren
s
marsh
opportunities
toe
recycled
##ur
##par
cable
wanna
totaling
revolving
dwight
churchyard
##ivity
awakened
horned
##utus
mighty
shark
[unused591]
priesthood
flee
gao
laude
need
leon
stakes
590
economics
port
facilitates
ᵖ
extra
sonata
homo
okay
photography
punishment
lacy
hamilton
palmer
tries
##ٹ
coordinated
protective
ji
raw
coughed
##ʳ
1867
wicket
haute
prototypes
outreach
dire
1720
[
honor
appoint
prom
##51
knotted
unharmed
techniques
prick
categories
hubert
horses
surveillance
っ
tourism
hours
[unused713]
##red
##dhi
234
##oor
radar
sip
[unused58]
robertson
choosing
ceremony
1920s
2000
indoor
£
revived
pyramid
rafael
ryu
##∨
##icio
dull
##umble
coated
abilities
resides
manpower
##lynn
councils
jointly
alarmed
erebidae
authorship
earned
##ul
traditions
##carbon
newsweek
hear
1941
subfamily
##hed
traveled
##cat
oak
##cki
off
burt
dvds
bancroft
downed
##nbc
carlisle
fond
shale
volcanoes
goethe
deportation
bingo
demonstrates
husband
disease
seoul
##ori
virtually
ghosts
papua
magician
wool
chance
governed
magnificent
clones
incorporate
##ower
##nad
1917
squadrons
coop
once
rpg
##]
framework
157
##rrard
camel
##nal
beside
annually
rivers
progressively
soc
wide
##ʉ
televised
1661
##vious
##ignon
radius
floppy
failing
dust
headquartered
deluxe
backdrop
1757
bournemouth
##gree
loren
distances
₤
natasha
hollywood
kiel
##chel
emirates
newborn
contractual
dominant
dilapidated
builds
[unused949]
##boot
jarvis
buena
motorsports
understand
cleared
binary
psycho
ripe
thirsty
dana
fantasia
assessments
थ
##ami
utter
mythical
counsel
knuckles
##cio
unto
gotten
economists
generic
##kara
shipbuilding
antennas
loft
##ating
##itte
narration
##gul
fractures
[unused248]
universe
rings
rick
[unused628]
professional
##uram
[unused356]
а
affecting
##hya
cheshire
apps
”
racing
80
malvern
[unused328]
sevilla
avenues
##さ
xiang
##ccus
habits
horribly
pigeons
folder
waterfront
dotted
circular
##runa
sizes
basketball
robot
detection
profits
liquor
philips
wai
##ᅧ
simulcast
deutschland
delayed
genetic
legend
federico
文
##ы
##ע
thumped
philipp
streaks
##%
conductor
kuala
reluctance
##wara
admits
##ᵍ
romantic
ligue
unbeaten
##eta
##grant
ட
erin
##tight
##ள
presbyterian
13th
[unused505]
distrust
dump
harvard
outfielder
retreated
pomerania
[unused224]
simulation
structure
westbound
definitely
##ulia
supported
[unused699]
宿
average
chelsea
marker
rebranded
again
collaboration
guts
localized
lords
[unused953]
invested
ps
activated
##swell
vocalists
jesse
##olio
aggregator
act
rendezvous
equivalent
##志
gloucestershire
##yang
scandals
sasha
1884
steiner
spelled
oldest
##sha
responses
supervisory
sony
please
worship
navajo
##neuve
disappointed
##holders
permit
benito
sick
prof
f
status
zurich
chamber
inclination
segregated
tasked
combinations
inverness
wrecked
ordeal
cerro
vitamin
cadiz
vishnu
consistency
[unused216]
nora
grenades
##posed
industries
alan
fake
##ﬂ
patrolling
schultz
rags
ي
sank
honourable
⊕
occupants
##anal
veteran
karma
nl
##rim
##tte
lent
chancellor
##hyl
goldman
##ship
hog
131
virgil
1727
accelerator
[unused636]
diminished
provincial
talent
hound
##acies
##евич
scrolling
##キ
prison
mines
[unused640]
flowering
bad
##sius
##ury
##ske
bandages
reconnaissance
ornate
ask
soaked
sentinel
sequences
waiting
documenting
friend
macmillan
172
##ib
cochran
##ws
affordable
leave
names
mile
markus
swearing
##thy
flushing
##hedron
symmetric
⁷
##ish
##ₙ
1840s
sudden
rep
manifold
##ckle
##out
##folia
##sau
samuel
winthrop
mutter
shoots
glamour
parkway
equivalence
ogden
1950
23
save
bs
storylines
kepler
extravagant
frost
weekdays
##oric
no
##kti
depths
shang
likened
truman
symphony
[unused762]
ш
mistakes
##ath
##vati
bacon
bundle
wasted
build
principally
staffed
[unused709]
racers
nebula
guy
##ang
recovery
plaque
##rta
ivory
engines
jaguar
reluctantly
polar
servant
cw
request
##raphy
[unused643]
progress
elijah
ngos
proceeding
officials
seeing
routinely
##lett
darrell
liberal
[unused25]
##ment
relocating
##∂
resisted
##ders
[unused282]
幸
electric
##ening
##lizer
fabulous
loose
mclean
updates
preoccupied
hormones
hires
hauling
lawsuit
motorized
##avio
stacks
4a
speculation
abdominal
1711
snail
segregation
medicinal
inquired
vary
rebuilt
porte
duplicate
moisture
perfume
1752
aldo
##iad
oceanic
[unused832]
ツ
when
downtown
immigrated
mental
##nberg
throwing
wife
collapse
##ₓ
1771
pigeon
aesthetic
happy
liv
trembled
dalton
petit
##ioms
##ong
permission
健
crawling
##iferous
##path
gambling
noble
##lers
evaluating
##systems
finding
brakes
代
beverley
orchestral
airing
blocked
warrant
[unused908]
stefan
optional
wines
wars
shifters
bradley
bela
chin
childhood
ham
blaine
foraging
housemates
##⋅
beast
##cy
headmaster
nz
sufficiently
contractor
imprint
tugging
##テ
რ
##ste
[unused274]
stevie
breakaway
sooner
##ich
nix
famous
amar
liang
majestic
425
##ʻ
visible
awkwardly
imam
exists
##horn
allergic
playback
inference
135
ε
juan
locate
salvador
##rson
disgust
cylindrical
##oles
ч
confront
recommendation
dawn
requested
admire
##sov
wales
compulsory
stanford
stupidity
fiber
sur
some
depend
genuine
##eau
flared
potatoes
##sant
interrupting
narayan
fuck
pornographic
ᅳ
110
spheres
cavern
combined
autumn
faltered
synonymous
##lang
dimensions
##bc
##lford
recaptured
posse
feature
psychological
2009
algiers
##belt
paper
##stellar
commands
troubled
tributaries
scholarship
likeness
bothering
nephew
##on
pendleton
smart
variously
ʉ
##ʀ
ubiquitous
##iens
##gill
##lis
##ffer
##trum
[unused936]
april
##↦
yan
stray
unmarked
plantations
brittany
parapet
assume
ranging
persona
trial
archaeologists
）
abdul
cody
1769
colbert
internship
##司
phosphorus
忠
violins
##戸
endless
atkinson
##tur
』
pumping
calcutta
caliber
م
cartwright
springsteen
eyeing
jeff
alignment
↓
feudal
corresponding
aroused
oversee
彳
antigen
neural
fia
vacated
[unused302]
school
olga
breakers
extinction
vikram
treats
[unused517]
tex
##nostic
1949
1654
bark
reservoir
grimm
■
##ene
specified
uprising
her
confusion
##tea
overseas
newer
##仮
jae
screened
crossing
wc
preserves
##bet
io
drenched
munster
##bri
specializes
reacting
shaved
##wat
letter
promenade
clint
へ
greenhouse
questionable
graded
##ides
doctrine
##alia
ravaged
occurrence
defending
[unused664]
[unused719]
##yl
adjoining
thunder
rouse
pakistani
##ele
moines
出
fae
ruling
reformed
##ocating
owens
hazel
reverse
baptism
mast
##zhi
a
honda
migrate
amendments
crew
ek
agreements
medallist
wasps
coward
##isa
spring
constantine
recruitment
blitz
##oulos
##yk
barber
commemorates
##grounds
marcia
##jevic
eine
bellevue
embarrassed
क
clauses
##པ
[unused859]
##rton
##×
appliances
##enna
embodied
dso
##eal
use
hug
skull
##ropolis
glendale
##ci
glaring
veterinary
118
dir
teaming
bermuda
likes
##rky
##lan
whispers
policemen
wreckage
antibiotics
,
[unused400]
##arns
journal
concept
palm
receptor
cello
trombone
saskatchewan
decommissioned
##dly
straightforward
jolted
napoli
survived
##vir
trick
crane
cheers
sighing
while
##anies
irish
crystals
marital
[unused339]
boredom
##onale
iphone
piedmont
remastered
leapt
1914
swam
##evic
docked
##nto
subgenus
ා
libertadores
thanksgiving
##stown
amusement
records
##ios
trouble
intervened
ottomans
consent
newport
therapeutic
watson
nonlinear
cheerfully
crowd
induced
johann
##eiro
gaza
confluence
walt
ग
online
88
genius
stuff
neighbours
##man
##vern
##urgent
王
constantin
clock
##tem
##duction
opinion
sisters
turret
moose
stuart
perennial
illuminated
representations
ionic
lined
litre
restricted
shopping
sven
recording
roe
branching
starter
##ices
[unused100]
skilled
worms
directorial
solos
crest
£10
dwyer
mc
posters
belfast
dune
condo
greasy
1715
sorority
lux
articulated
marvelous
##yas
salzburg
saudi
phase
hampered
ape
bear
##高
[unused869]
bore
abstraction
maximus
skiing
##min
taliban
##cting
invitation
sanity
rubber
ʌ
neighboring
snout
reich
आ
##忄
eager
285
koppen
freud
prohibit
sunshine
somerset
instructor
ruth
1744
carrying
kane
##otted
care
##ih
mateo
##lights
##α
fledgling
ascended
jp
##il
neill
amp
##р
adaptation
unification
moaned
quivering
apes
doses
##farlane
reclaimed
[unused395]
sheltered
##worthy
holding
braden
middlesex
slaves
##yre
holiness
founding
pockets
lesions
henley
innovation
*
bodies
reduces
26
texans
salts
##tton
reserved
moods
spinal
intelligence
hub
renewal
170
rift
ᄒ
1100
nbc
sailor
א
dealings
darius
debates
##uan
##chase
[unused153]
piper
glided
worcester
residency
creditors
##ll
mug
subunit
的
kissed
reads
authors
36th
woodland
charlotte
witch
entitled
##uet
mongols
zane
##ution
##tiv
##城
cedar
##ched
delaware
beaufort
collateral
sylvie
##rner
gateway
##bron
repeatedly
coefficient
yun
##ked
##ulo
drew
risky
march
spears
ozone
##planes
sarajevo
cessna
dropped
mughal
bibliography
##llis
guinea
regimental
chorus
##ibly
chromosome
few
guineas
waving
dillon
copying
##mot
triad
disperse
##gement
puzzle
maureen
repairs
243
batted
##dell
##pper
peru
harshly
versailles
derive
marrow
##elman
nouveau
ف
##ot
bristol
det
munchen
demonstrations
equally
hailey
[unused1]
248
##hia
diplomat
throbbed
imperialism
murders
##42
⁄
##忠
hottest
shot
gatherings
kashmir
1982
clayton
shelter
qatar
expenditures
constantinople
hagen
##土
brain
##ern
demand
ocean
baroque
membership
[unused441]
dowry
au
arrive
indonesian
murdoch
outta
igor
printed
vanessa
issuing
dentist
safety
morale
greer
##lving
als
intently
declaration
challenger
##rgen
johansson
peace
lamb
##nese
judicial
latitude
[unused988]
stock
doris
inputs
cringed
##uk
promised
ratification
prices
serie
##mal
dams
tar
sync
##ji
precedent
woods
formal
energies
##havan
mu
η
malley
##class
plum
polymers
neil
contacted
hidalgo
count
conway
senators
rossi
shrines
royce
pipe
##tting
approached
##uen
usa
squadron
muffled
2002
forged
concentrating
ireland
grid
thong
dangerous
additive
marriages
##ག
tribune
##36
ina
academics
sinclair
larsen
breaking
indicators
##kova
##very
liu
terminal
commissioner
richards
1660
##yes
sufficient
conception
remains
inhuman
typical
##ians
entrepreneur
[unused933]
34th
suspension
dare
pamphlets
operating
boca
##xious
[unused932]
drip
midday
encryption
nonprofit
toni
237
divorced
spokesperson
kenton
barrels
effects
latin
chilled
director
helm
punishments
debuting
glucose
downwards
##nis
slower
##pal
inches
##gue
move
process
[unused769]
prop
sedan
seamus
carriages
cheering
##isha
##log
##–
monsters
abdomen
glorious
illegally
broadband
debt
##ual
meal
certification
immunity
intern
modified
##bly
painted
veronica
oldham
runes
folding
championed
gain
[unused518]
haitian
planck
gamma
[unused883]
cu
regeneration
himalayan
buchanan
##cies
lively
brethren
clover
excerpt
satisfying
bearings
nebraska
##վ
knowles
fifa
氵
leaders
demanding
molten
տ
temptation
liner
ո
layout
catherine
barbie
vertebrae
gaga
1950s
keane
your
minority
racecourse
##chule
amman
menacing
indigo
invitational
torso
inhibitors
soon
answer
prevalence
##z
criminal
european
##ichi
duke
tha
##ا
windshield
compares
##ந
intimacy
enslaved
windsor
self
hugh
##pod
reviewers
jace
##gf
beatles
##ivar
fulbright
[unused675]
sailors
elector
bahadur
glued
谷
##vik
##sley
ethnicity
##meter
governance
hawker
boomed
bis
christianity
additions
houses
passive
illuminating
##tucket
begin
⊂
floors
##vers
contrasts
intimidated
hostilities
justification
sell
blanche
cantata
171
tears
boroughs
limerick
##bee
fashion
east
ying
sin
slips
sustained
visions
##ctric
ᵢ
goes
[unused519]
[unused527]
##liffe
##法
##bol
out
[unused254]
##sted
aboard
##nsor
known
strings
seventh
granted
refreshing
fivb
construction
##eira
trafford
[unused684]
[unused595]
अ
##bate
proxy
ξ
journalism
##ław
bonds
guiana
##redo
hosting
bogota
w
##vna
drifting
##dl
rashid
##cor
mobilized
crate
bahamas
brahms
##ヘ
jonathan
cabaret
stadion
shivered
##sław
swore
titans
##talk
glide
plush
connor
adored
variant
registers
[unused831]
polo
trois
dominique
##ан
compelled
##rick
peacefully
##ब
palma
cloud
発
feelings
##odle
planes
##宣
toast
##day
##iri
amounted
arguing
mw
charged
cycles
rams
trance
receptionist
blunt
et
obama
leaned
simpsons
reconstructed
questions
skipped
1959
liga
##dicate
mfa
flock
although
cooperation
1648
decreasing
knighted
wheeling
##by
complaint
prone
##riated
##ecure
choke
boots
marines
universities
[unused972]
loans
axle
drilled
rush
ncaa
##truct
##lind
farms
23rd
##fully
leroy
interred
##haling
##ply
690
yielded
driving
tr
mature
asshole
condemning
pianist
nrl
booths
kamen
mr
պ
‰
premiere
zinc
portal
##ᄑ
521
neighbouring
kg
rankin
auckland
lloyd
0
##pher
kapoor
verification
willard
##torium
migrants
mammoth
shiver
possessed
175
conspiracy
harness
##falls
drawings
##ules
surrounding
##ucible
1968
practices
##cards
owes
surgeon
saves
android
jody
massimo
frozen
electrons
cellar
charging
lengths
long
sugar
youngest
atletico
м
disk
bamboo
wilder
##sman
##mento
ralph
mansion
celebrations
mount
winchester
##garh
platoon
##64
##lim
##tow
puget
[unused596]
scene
maintained
##stock
[unused341]
bratislava
##mora
luke
77
fright
nt
styles
matrices
has
##ricted
curtains
loomed
tale
malik
hearings
grew
##ning
[unused499]
contexts
suburban
liszt
ɾ
##ق
expert
##unda
douglas
sykes
##vale
##oper
女
ᵘ
vomit
eruption
19
##宮
breed
dakota
##ains
exit
gotta
provision
sells
780
sv
syed
##iente
distressed
wards
middleweight
dependence
ย
##rnier
##38
totals
##€
walking
appropriate
colton
starred
viruses
1670
exploit
autonomy
##ves
thayer
##rmi
albans
beliefs
legions
unchanged
dona
reclamation
tumor
[unused176]
vaccines
fierce
ditch
accord
[unused685]
##щ
[unused233]
地
189
jakob
sticky
##dler
paolo
dewey
pennant
bloomfield
##dana
savoy
##<
##the
bundesliga
##inda
[unused45]
ignore
##riam
kellogg
pietro
oversees
quieter
cryptic
photon
##koff
##uj
permitted
##lore
sponge
bracelet
grade
##oed
aaron
##pired
lit
£3
eat
ₛ
coke
##ldon
pounder
[unused195]
bureaucracy
##ρ
luck
silly
capacities
##ary
novels
turbulent
everyday
[unused181]
batter
mclaughlin
##herton
##下
jammed
smirk
1570
mediation
georg
desert
hansen
##ented
joke
song
dreadful
midtown
influx
sacrament
isolated
newly
melissa
##storm
roll
bangor
kiara
hatfield
exterior
##nob
playing
sts
reissued
levels
welcomed
[unused887]
disciplines
宣
相
##men
middlesbrough
yale
arbitration
cry
[unused188]
##bio
[unused35]
receipt
preached
##erina
village
merging
##tries
supplements
coloration
menu
[unused781]
smug
brewster
printers
parked
shrub
pinnacle
##อ
belonging
communion
松
societal
bunch
recalls
biologist
[unused904]
lethal
philosophers
##arians
##zione
##せ
##uber
rocky
xiv
riddle
snap
秋
patiently
convenience
anytime
reintroduced
1781
ষ
in
partnership
##sis
##weiler
irrational
gestures
asks
bianca
decade
yucatan
francesca
sundays
candle
14
1891
damned
##35
laundry
##heater
historic
narrow
township
daily
distributed
wage
≤
vertical
attained
garlic
av
ky
width
上
fuzzy
blacksmith
sparta
41st
advisors
[unused850]
ignores
assembly
assumptions
kills
##hire
##nio
ashton
worldwide
mention
rosen
[unused265]
movements
alessandro
chemistry
serbs
dude
##+
maize
##entes
##rret
whistled
cream
1976
nightstand
##ʲ
ᅡ
seismic
jurassic
heel
licenses
tracking
teeth
variations
##iman
surpassed
[unused484]
##ort
в
##olo
manage
harley
doctor
lets
##stle
imprisoned
samoa
warfare
bellowed
bard
sabrina
##dents
brief
devlin
throat
gazing
##cano
stipulated
humboldt
##nant
##ome
timing
##growth
##bridge
ذ
six
harassed
suppose
radicals
airlines
uniform
rearview
1682
halfway
##語
foot
##mere
##lden
touches
published
##minate
kerry
##rase
nigeria
##з
##安
straits
tq
pastures
crawley
hale
beautiful
##lva
weston
fates
mellon
defendants
limestone
##sat
honorable
manipulating
monastery
##rgan
##lce
life
emperors
wright
tv
に
##put
reactive
teatro
新
hushed
307
diet
##isson
recital
fuselage
one
mosaic
##崎
ス
va
egyptian
orchestra
a1
counties
teachings
climate
郡
##ching
particle
spiritual
chesapeake
bottom
##ology
claimed
##ts
unable
liza
[unused652]
amadeus
##ech
operates
correct
curtain
visit
solving
downs
coverage
reelection
sarcasm
##tyn
euro
[unused892]
volumes
detailing
fellowship
jung
penelope
ceylon
times
domenico
ample
santiago
macintosh
specials
traumatic
##ᅮ
প
couples
mastery
saunders
##neas
succeeding
##風
avant
vocal
dripped
imply
##lts
[unused614]
lumpur
messed
265
bulletin
layered
№
ferry
prescribed
3d
rwanda
##vas
indefinitely
start
##ui
oppose
place
testosterone
norwegian
cheated
rulers
chicken
cliff
lgbt
paired
groups
dreaming
##rney
signifies
##ो
[unused794]
insertion
[unused346]
с
cite
ito
bedford
##gre
##zcz
barely
melodic
sabbath
flag
intending
orbit
unpleasant
##ello
increased
294
fletcher
solution
ming
metacritic
##vian
technicians
glint
cycling
victorious
##lova
intermediate
pinto
snort
grinned
philadelphia
lipstick
choreographed
paddy
inactive
hostility
wear
nj
insanity
##☆
[unused649]
capita
arctic
ホ
##gical
arresting
##cion
approach
meanwhile
gun
rr
homage
sheila
##urg
bud
antigua
sentenced
shreveport
unaware
scoop
edwin
reprise
popular
herbs
undone
blasting
planet
##ල
despair
ge
erupted
##dong
leveled
69
munich
apron
marko
novel
allies
alliance
compared
bunny
national
##plate
drills
[unused342]
mayoral
drink
lifted
tempo
org
guerrero
##氏
strikers
coins
[unused893]
thief
##xon
perfectly
ʲ
120
##日
showcased
188
blackened
campaign
##edge
cavalier
₀
pali
details
cc
adorable
correctly
apollo
##rization
filled
ས
conditional
[unused950]
critic
click
tertiary
flies
digger
sixty
leslie
catering
skater
italy
ends
ʁ
##rup
##tar
cracks
meta
borrowed
transitioned
##elial
suicide
parachute
##街
suggesting
cupboard
[unused579]
simultaneous
clerk
steele
##kov
##阿
##tral
lash
wa
they
##cier
romani
ios
zeus
install
[unused443]
[unused516]
##inger
[unused24]
royalist
wages
darren
afford
trader
flinders
石
colonel
menon
economies
transmission
cooperative
like
##berto
production
winked
elastic
pisa
1865
continue
slapping
##shida
##cuting
diane
##enia
donnelly
ก
shutting
成
მ
jillian
bros
##ג
human
glasgow
brentford
peterborough
leads
treasurer
##tler
telescopes
##ido
traversed
##cross
prosecutors
##™
audience
inflation
artist
messaging
rapidly
virgin
seizures
por
##bane
gunmen
##real
##arion
neat
crossed
horizontal
cleaning
battery
prematurely
avoided
barked
oversized
hicks
##文
[unused625]
economic
hardwood
bobbed
steer
e
mps
taft
equation
wire
seize
milne
##ance
##idae
[unused858]
proof
immensely
##em
earnings
rumours
1705
negative
⅔
yeast
1915
##ncies
##vina
fiscal
##ita
being
##eles
parramatta
interactive
##edo
##ч
alias
ʔ
skipping
dissatisfaction
cnn
corbin
appointments
replicate
sadness
[unused957]
greeted
fischer
banner
##night
settlement
fires
vc
caledonian
##न
fallen
trade
403
citizen
contains
patrol
coffin
turnover
4th
##尚
1912
tighten
[unused458]
promise
genes
mariana
covered
nos
heir
rub
##hi
frigates
皇
lincolnshire
susquehanna
panted
islam
cheerful
bryant
anxiously
ua
tequila
latter
meetings
hades
sensitive
hairy
bounced
unanimously
emotionally
1882
resurrected
learning
300
penetrate
elites
props
nord
aiden
laurie
initiating
documented
11
spa
francois
mao
ru
##ure
thousands
draped
dodge
hurting
obey
goa
&
dali
stranded
##愛
geological
##ن
ध
present
ひ
##ᵣ
[unused464]
monique
fbi
分
##front
antarctica
ᄂ
##shah
center
impacted
qualified
##gel
burials
recent
sweatshirt
baltic
reserves
poznan
departmental
acceptable
?
london
ব
intriguing
##gence
crested
stole
##অ
##メ
good
realization
warns
alley
three
verve
nouns
##hog
johannesburg
ku
[unused327]
pei
lissa
##相
mirrors
carved
morse
[unused446]
vital
[unused347]
george
mecklenburg
##tead
kilkenny
lsu
premio
post
openly
1786
##ʋ
ri
saturated
scheme
franz
narrowing
dwell
407
##sford
clothed
herring
70
annex
##rius
streams
212
intervene
##avian
##jos
triangle
compensate
dug
tag
swaying
ode
rodriguez
israelis
stronghold
##3
americas
tara
whale
[unused48]
originated
syndicate
pots
##ement
##hing
naples
burned
toy
##nity
reggae
##eer
it
burgundy
breakup
##rak
tnt
disastrous
niccolo
fay
imperfect
nerve
##reus
apple
benedict
##zyn
interval
motown
outdoor
opponent
ceased
nearing
##mind
artefacts
poker
##ories
flyer
##∘
repaired
lakes
tavern
maya
yunnan
troupe
visitation
caine
##qual
elect
smoky
б
notice
hopes
sized
wesleyan
hiatus
##ᵈ
kamal
trams
##tyle
alps
≥
##ima
annoying
##azi
[unused784]
bless
seat
accumulated
maximize
horror
bordering
bribes
[unused929]
##ol
##hoff
gregor
appleton
junk
amir
metre
##仁
briefing
##∅
democracy
quadrant
adjunct
brodie
household
ₚ
##till
##sil
humming
ז
##rke
apprenticeship
intended
spilled
darryl
buffet
shaped
conversely
putin
panels
##crest
c1
1864
##was
responsibilities
##ctive
atari
maestro
telecommunication
24
breasts
1612
[unused839]
##anza
defences
decent
##rain
buccaneers
shepherd
pretending
ᄊ
shall
jagger
biographer
##law
stay
onto
explore
performs
patriot
consolidation
darkness
mage
recognize
chartered
apex
rouge
ensembles
yeshiva
blanchard
##over
[unused355]
platforms
orlando
renovations
1743
##eased
ो
corrupt
prefers
flaw
across
batteries
slam
stiff
whistling
##gues
##pf
##nn
inception
##gonal
tres
##tp
superman
[unused185]
stayed
denis
耳
dictator
##sities
requirements
vie
##『
assuming
samples
smacked
katie
coordinate
sneered
graeme
drawing
pins
##aca
##木
players
reared
##kat
remnant
eyebrow
gmbh
smuggling
qualifier
standings
penn
looted
incomes
calf
[unused723]
ponder
agriculture
winced
theodor
##清
stressed
alfa
flowers
entire
kathmandu
##dge
##etano
documentation
##mology
facades
##⊂
夏
confederation
physics
bernie
trolley
##icus
performance
318
consequences
##opped
cinder
blown
artists
##xi
mediated
abolished
[unused779]
damn
involve
child
##overs
feet
##roll
telenovela
##nberger
trademark
ware
calhoun
angel
discuss
pedestrians
##っ
regents
live
##pic
principals
sniffed
##ms
protections
detroit
grandma
##irs
psychiatry
fluffy
##ject
roommate
##moto
wallace
slang
argyle
227
1665
hidden
cartoons
schuster
handle
recreation
##mel
matthews
##sden
epilogue
judging
##rval
cappella
kyiv
wheeler
##nessy
adler
##∇
rigged
betsy
reminds
healy
catcher
jarrett
literally
forbidden
albums
kingsley
昭
deported
donation
[unused253]
##tf
incorporated
cages
##tty
##udence
ashland
pleasures
elders
bias
contributions
##vet
##力
maltese
progresses
careful
thankfully
by
##ட
gabrielle
chromosomes
panthers
responded
##gia
##roller
entertain
jonah
##lai
##hope
ticking
release
1972
engagements
thor
gunter
culinary
[unused424]
##ro
twitter
jase
##oss
##′
za
donald
estimation
pretended
pulling
marketing
navy
stalls
##uck
royal
arranging
a2
cavendish
wiley
pac
##logy
guerre
larger
liberalism
courageous
deserted
[unused82]
54
exercising
become
eighty
closer
taxa
##ntino
[unused351]
conscience
enrico
chapters
mbe
vertex
##ddle
earlier
##da
actors
suggests
##keeping
tenderly
reconciled
skimmed
kindergarten
reddy
aids
49ers
intensive
##ound
ᅮ
scooted
dee
millionaire
##ტ
active
disadvantaged
planning
slave
imaging
capture
retained
##orted
olympia
1901
##osis
fairbanks
chop
##has
painters
drowned
vienna
undergone
dixie
mechanics
##ak
##sio
##rogated
papyrus
outdated
monitors
ま
[unused871]
inclusive
rudolf
placing
fight
accusations
theirs
revealed
binds
melinda
bwv
fusiliers
horst
confessions
jordan
engage
diagnosed
ck
##wt
biplane
twin
drunk
add
solids
dissemination
knife
##nology
extremely
リ
aircraft
nascar
war
divers
rents
professions
peck
press
dresses
'
##sr
poured
iss
got
low
##ᅭ
##ruck
∞
flick
allows
orange
309
wiener
catastrophic
co₂
deeply
past
strangled
learners
applause
##ess
##lton
司
microscopy
outlawed
surfer
savanna
##in
adams
hatred
wendy
¹
assassinated
##hong
basalt
[unused191]
provence
heavy
##16
johor
##ont
dawned
##avia
tolerance
conditioning
outlying
criticizing
##pp
camouflage
lb
##pling
maldives
counted
frequency
recounts
##athi
flavors
produces
observations
kidney
rolf
gallon
san
##lip
mcqueen
vibe
[unused402]
clearing
##bury
ohio
leone
persians
minnie
##ture
knots
lacey
compound
##rland
betting
accomplishment
fukuoka
progressing
claudia
accompanied
nixon
winter
sheridan
parallel
gustave
clutches
tooth
qur
cooperate
holm
ultra
hindwings
logistics
intercourse
##一
scenic
##侍
##are
stratford
oilers
##economic
₊
##kee
commonly
wimbledon
colby
quebec
##wled
naming
sunny
##nov
1815
##ulio
paulo
beard
mercenary
##bha
gerhard
nazi
implicit
crimean
horns
256
laurel
speech
mort
##esian
##flow
##ience
##umatic
堂
costello
referee
iraq
##zone
guerrillas
rave
nemesis
pontifical
##body
家
harvesting
##ক
##rissa
##lastic
1925
[unused208]
motivated
retailer
##aux
caressed
disrepair
plates
brother
profit
##ibility
watford
ι
remainder
derived
wondered
unfortunately
vet
hell
[unused775]
seeded
##ria
stalked
##þ
excursion
quantities
pursed
horseshoe
matt
crops
##ski
criticised
drafted
nostrils
mons
compressor
##ก
##tine
ad
analytical
endure
whirled
##iac
[unused84]
valentin
##pore
portrayal
chants
##つ
breeze
lanka
eve
illness
960
protects
[unused882]
seven
saints
##ending
bollywood
materialized
reports
starbucks
[unused961]
henrik
##ddy
adrenaline
filmmaker
over
ames
transylvania
evangelical
31
##mus
patio
##chal
ァ
upright
accuracy
wii
tried
poem
[unused688]
##ised
former
update
lindsay
economically
reiterated
oral
[unused952]
##itha
‑
landscapes
vineyards
lucie
partner
##ᵏ
screamed
employs
tales
quan
absently
niche
lim
##miento
unconscious
prophets
##vi
[unused244]
failures
[unused466]
す
tangled
harbor
bram
lana
spraying
more
critical
mcleod
##reen
amazingly
[unused803]
romano
multiple
##dermott
abstracts
lois
farm
eminent
##lice
reconcile
##ˣ
##‚
##escu
##acious
researched
conor
infirmary
clip
##cian
[unused975]
subway
libertarian
rails
##iba
amelia
shen
dealing
abundance
trend
##bow
327
dynamic
winfield
hurling
225
uniting
heather
##ท
1701
drugged
popularized
¨
degradation
plata
##rix
queens
romance
easier
allotted
chamberlain
tonnes
1846
drastic
startling
enough
replay
weakened
software
gesturing
ending
##coat
layton
thwarted
warrington
knows
distracting
##kari
fusion
locked
horrific
##dget
arching
##ん
presence
##abas
roasted
krakow
##dak
[unused308]
eleven
djs
narrated
##場
piazza
rico
ら
##ulator
spicy
namesake
ricky
entering
alarm
hostess
blades
##ile
alec
neue
baseline
rapids
rebels
minas
births
cups
unaffected
orson
22nd
[unused454]
eight
remember
##vating
##acker
alright
snorted
##imi
subjected
popped
volcano
##wer
##馬
##db
moreover
sink
sense
lawrence
ict
censorship
##p
spartak
##て
moving
decorated
scripted
moritz
##bang
tender
shuddering
/
turn
afar
235
∩
briefcase
enterprises
graphs
qui
prospective
belongings
wicked
rabbi
growl
##vus
volunteer
francisco
tract
dallas
##ors
##vier
bjorn
##fies
strongly
merely
##urs
aerial
karnataka
unesco
break
builders
##rino
sealed
sensations
arousal
inscriptions
disapproval
mixed
1924
legislative
fortunate
##月
##ground
kimberly
[unused106]
pal
wilcox
nuclear
wrenched
culture
americans
pneumonia
i
##32
acronym
##ales
carnegie
1956
cleopatra
sculptors
##ச
premiership
refrain
640
##朝
81
blacks
##phate
grasping
sicily
##iful
with
spoon
inline
caravan
afrikaans
unsuccessful
##sive
fritz
williamson
##bell
leafs
##oire
collaborative
unfamiliar
extensive
[unused192]
shocking
polgara
stick
laced
kaplan
##ahu
1836
hearts
##llet
cheekbones
##wire
beneath
bam
himalayas
promptly
##book
thereafter
##shore
successes
prisoner
##vor
glare
tent
floated
##kic
hammond
buddhist
eddie
notification
##washed
##ua
heroic
stunts
ideal
hood
resented
electronically
neurons
brooklyn
intercollegiate
##aby
keyboards
radiating
sphinx
90
כ
meteor
flashlight
chain
winery
skirt
##fo
##tility
iteration
##marks
##50
palatinate
##vb
##dra
fife
flows
##tera
marries
##ggle
ego
ao
beads
territorial
風
chest
customary
岡
geek
overlook
[unused718]
attempt
impressed
##ব
whereas
ᴮ
grocery
crossroads
secular
##isan
prejudice
287
impatient
indefinite
petition
greeting
##ض
[unused270]
##ato
educate
buckingham
kildare
##eak
decor
##lovic
##vich
mccarthy
nonstop
##pd
##utation
¼
extraction
outlook
segunda
variance
##外
houston
##華
glaciers
spite
shortened
penis
naga
disused
##dian
stockings
accommodated
bwf
dwarves
[unused306]
##春
##app
##ais
picks
exploration
roma
barron
electrically
##mei
towards
madonna
leaving
unprecedented
radiation
##hom
substitute
fjord
switching
[unused323]
planting
accelerated
yield
sniper
##zumi
[unused23]
independence
swan
ballistic
ned
craftsmen
litigation
##vate
lou
##dio
##uss
##ntal
[unused560]
fang
hacked
expansion
##ioned
270
surged
feral
southernmost
bytes
finalist
baja
herman
fucked
contemplating
embark
##ption
rebelled
##vino
sequencing
##dda
##resses
##tions
manifest
nightingale
fits
turkmenistan
##berries
chatting
##ron
1785
mandolin
rounded
splash
##ₘ
drama
ি
approval
gilles
block
della
lo
eroded
ʾ
republics
##name
##eda
kids
ζ
donkey
rangers
faux
eritrea
motorcycles
portuguese
kahn
cat
ী
collect
omaha
n
ᄌ
perfect
mantle
denmark
experimental
##pine
adequately
1703
##held
##orne
##ache
109
compiling
##fera
slow
uncertainty
sino
lies
##lish
puck
##quitable
dungeons
bender
detecting
undo
quarterly
##heim
abnormalities
nato
cary
promotes
cameron
286
customs
recover
sentence
biker
luther
jogging
renovation
elf
[unused133]
lublin
forwards
affiliation
des
abnormal
pagan
##ilia
korean
repository
yukon
palestinians
##rov
renal
commandos
##rnet
hears
[unused14]
darts
game
south
quit
heartbeat
addresses
snails
⁶
geographical
headlines
proceeded
seeds
engine
##ards
##dle
dialogue
octagonal
written
##enstein
flu
bump
##el
fast
ing
confidently
divert
lehigh
heaved
reno
ウ
flap
exploding
ை
elena
consistent
peyton
gospels
snatched
charming
hobart
rotate
##leton
gnome
seated
##oto
hiking
##osta
##rsa
[unused941]
begins
shipping
evenings
sudbury
observed
mineral
doors
bombing
extracts
coaches
##tre
41
441
niece
operate
##ashi
whitley
speeds
how
##iving
##aga
hz
stepping
patton
##ili
blinds
##eit
##थ
##house
mercenaries
solidarity
transfer
shire
greyhound
npr
explosive
petitioned
##bilis
reece
carey
booth
tasted
doncaster
saxe
incompatible
organisation
conquered
advertised
graduating
##sma
oppressive
quartet
[unused319]
student
##bad
##uation
##ე
[unused74]
##poulos
waistband
nesting
caleb
differentiated
underwater
sebastian
ふ
た
conducting
referees
₩
##iss
diner
scranton
hailed
##（
pinched
##龍
mating
##up
##gaard
##hill
glider
rear
##pants
nay
beloved
##nik
noun
beginning
mistakenly
refinery
stripe
exhibits
[unused73]
pastoral
¤
間
administrations
ax
multi
##ة
mueller
fired
flickered
##anto
##lized
bali
fire
sensor
sarcastically
suspend
contributed
fastest
##有
madagascar
##week
toned
##π
convoys
##ick
jammu
##kow
##iji
appeal
##oi
##bina
refugee
destruction
##iya
penultimate
norton
proving
floyd
##gny
356
console
hiss
reducing
agreed
taxes
##tc
fontana
##ulsive
1998
ports
mounting
modelling
fully
unreleased
rescues
stuttgart
anna
tibet
trolls
38
jax
home
champagne
ℓ
grinning
[unused960]
cbs
creole
journey
trajectory
fishing
microsoft
squinted
[unused186]
##bb
prem
print
rows
reviewer
1860s
##ckey
theory
handled
rock
efforts
##gh
adolph
expressway
frances
##ok
tumbled
stale
##е
##nc
sit
belly
##pass
lands
itf
strategy
ᴺ
tingle
##rated
practiced
multiplied
beats
felipe
convinces
pow
delta
strong
1749
[unused105]
undercover
technologies
heartbreak
##wny
ե
##т
poland
##ld
aztec
compact
framed
friday
liter
behavior
##urer
##陳
florian
132
ensuing
canadians
strewn
fingered
gulped
adventurer
vicious
hero
aragon
accredited
720
compliant
engineer
comprehension
obscured
incapable
drive
iona
rani
oricon
von
##bin
spanned
bb
[unused179]
played
cornish
pc
directing
tremendous
input
1872
##ක
silently
355
oriental
viva
country
47
restaurants
boulevard
seating
imagery
researching
62
osman
##_
organizers
200
indicator
yue
judd
##some
1939
wish
hey
chrysler
decca
চ
temperatures
killings
composite
##bos
mca
raid
cardiac
bodyguards
supremacy
##piece
##him
bulldogs
gambia
middle
tailor
balanced
eureka
fragrance
##aurus
katharine
turquoise
beyonce
inc
disasters
##kins
uss
staggered
fines
shown
hole
##ty
visual
##kai
hen
dealers
panama
highlight
flipping
dark
fork
370
midway
oasis
##vao
broad
limited
potter
blouse
pollution
ʂ
##neo
[unused468]
developed
toxic
siam
regrets
david
chicago
##rian
penny
##mac
##lid
serb
##uid
styx
approx
helps
seemed
selected
[unused7]
উ
cullen
continually
der
choose
´
mildred
coefficients
scotland
##static
nice
regard
embarked
##hard
deliveries
lace
##raus
##б
choices
##ou
115
uc
ie
merge
##oned
villa
undead
iata
fellow
burr
##ka
‡
biggest
monday
##mics
performances
raiders
##pressing
passed
enhance
comparison
422
td
##liga
benedictine
sheep
heavier
leaked
reluctant
captains
##vocation
problems
ensures
cricketer
lone
execution
yourself
ko
imported
parsons
##resh
fictional
##urus
##ラ
##dae
##ration
alternate
##eus
##metry
mori
prevent
##tate
multiplication
creeks
##grants
nacional
artifacts
stress
blonde
akira
##ц
milk
三
stung
treatise
shaman
mcgraw
amber
shorts
##nb
handing
lithium
inspirational
benjamin
delhi
##lag
##won
age
waterloo
constitute
ourselves
interfaces
##ett
cultivation
##oof
buyer
↦
length
irritated
savannah
sabre
cruel
marches
forearm
mace
regulate
broughton
lucien
wry
cigarettes
critique
trieste
dimitri
##ホ
星
erase
fence
founder
ymca
task
niger
including
traveling
exciting
dislike
regulator
springer
m³
taylor
##acio
strength
armoured
danzig
trident
##व
productions
##*
[unused777]
同
hahn
kc
suffers
[unused570]
##atics
##dates
grimace
includes
fundraiser
field
adhere
[unused810]
heidelberg
tucker
leningrad
burns
1738
560
1632
oregon
awe
assyrian
plumage
##ologies
theta
bailey
observes
swiped
whitaker
boosted
unity
expands
considering
categorized
schubert
cochin
cabbage
hesitated
risked
spectra
shirt
ate
##oro
[unused122]
##ums
fashioned
better
condom
##rac
noticing
##ח
ł
haze
tanned
sob
humans
revised
brackets
estonia
supposedly
##urai
cumulative
[CLS]
anyway
succeeded
peel
aug
410
ล
together
／
inscription
eccentric
##ductive
tormented
twelve
centres
altar
camps
##hips
##icides
casino
bourgeois
##hta
loosen
amendment
##eke
pupil
donnell
##ids
upland
##間
alive
##onte
##arable
knot
swansea
##し
277
osborne
##lves
programme
##ree
pet
instantly
##sam
[unused159]
##tail
დ
wiggled
about
sava
##nee
shankar
iq
curated
vested
##書
modifications
reliance
cursed
nursing
lizzie
oblique
wrote
##yuki
experiment
##zie
dig
southward
offerings
upbringing
fk
gardener
##₈
conversions
##esthesia
brilliant
acheron
##mada
sentimental
mandela
lea
±
明
upon
cannot
underwear
209
##arded
[unused807]
psalm
blindness
compiled
grief
sally
##ნ
grapes
cutter
powered
incumbent
iceland
settings
huffington
steamboat
terra
spearheaded
》
synthesis
revision
california
##nous
waldo
##wd
foundations
simply
touchdowns
wildly
pupils
arch
exhibiting
##サ
dozens
foxes
irritation
sought
##acion
softer
lowered
ce
[unused814]
sloane
nonfiction
confederate
##ต
tirana
1989
limb
mm
https
##tort
[unused144]
##nished
aspects
##dner
concepcion
advances
generalized
229
mound
##rent
iso
chronicles
cheltenham
message
stretching
reveal
loaned
exported
patty
[unused383]
riaa
##rk
1634
##dson
demonstrators
plots
welterweight
bones
[unused678]
id
embankment
garry
sparkled
warning
##itude
reactivated
missionary
deed
bey
inquisition
##ena
syndicated
sprinted
##5
##rde
walter
[unused281]
amazing
winters
tariff
explicitly
theorist
stitch
santa
zeta
##rvis
380
troop
marshall
parting
infrastructure
seahawks
##elia
crime
polka
paths
[unused98]
##bola
option
吉
lawsuits
realise
rifles
acidic
remixes
callahan
enhanced
##tures
apt
company
adequate
realistic
rower
tenant
talking
remington
tian
andre
groan
barr
##tidae
concentrations
travels
##nsis
green
twain
calendar
depended
1783
territories
missed
##ca
strain
folk
##ished
louise
regional
journals
##‘
received
memory
wooded
hedges
clinched
prospect
disturbing
mornings
##americana
clockwise
##省
breaths
ᄅ
hancock
nominal
janet
baylor
##ingdon
taking
sloop
eligibility
nominee
graceful
busted
##plex
pumpkin
##ructured
##open
##ham
feat
writes
activism
hopeless
stops
elves
wes
discourage
andersen
communicating
modifying
##rer
[unused674]
candidates
##max
wolf
##one
explained
desperate
expenditure
triggered
##島
providing
sabah
tsunami
##chan
cabins
rival
depleted
##mg
concerts
1856
sudanese
##ʻi
discretion
eagles
traders
dashed
condemn
galileo
superseded
ingredients
sweat
specialty
copies
##pate
albion
ships
vows
dominion
##dah
vigor
proposing
evolve
##থ
sammy
patsy
##ridge
electrified
quaker
2020
trainee
doctorate
sane
milestone
sobbed
consider
##holder
burial
revenues
incorporation
kai
continuation
##iah
##500
each
##unas
topic
555
[unused731]
shoes
businessmen
napoleon
1943
生
nigel
dudley
##tara
hampstead
anthology
##nock
##otype
civic
##igny
impressions
rahman
optics
intervention
photographic
satellite
packages
gliding
##fle
willow
web
ferdinand
woo
##esh
[unused469]
力
laughed
complied
##pie
scheduling
##ツ
blanco
noon
mara
##hg
newscast
markers
##erine
michel
helmut
##瀬
girlfriends
deliberate
##fer
##frame
vidal
1913
branched
slant
devin
lilly
ᵀ
##sit
gen
time
wishes
controlled
[unused90]
wound
lavender
tear
[unused920]
clara
quotes
transforms
##print
band
hunting
rama
danger
[unused700]
[unused930]
reunite
##ᄎ
plymouth
jenny
relics
fixture
strict
sofia
accessed
refuse
##chester
guarantee
##iza
##lo
regardless
ken
hurdles
35
1776
wilkinson
indian
wits
july
##gle
processes
##cer
ecclesiastical
##rant
##routed
gonzalez
##王
jake
arts
[unused366]
[unused333]
ieee
establish
auditions
ink
[unused727]
now
т
semantic
lama
##onus
tends
##int
k
makers
##arth
hunters
bowls
musique
leo
excitement
concord
delivering
law
institution
judgement
swing
##iste
rotting
dub
##gt
fantastic
700
sublime
##laise
evolved
million
manchester
rebuild
signage
discount
singh
volga
##parts
managing
##cl
division
landmarks
lara
fry
##kley
北
1806
invite
[unused706]
inversion
harp
wharf
##around
attended
bhp
void
facilitate
760
trophies
shredded
##rdi
veto
##mini
confessed
##roved
ramp
kicks
browser
locks
troubles
##aking
##rano
dos
[unused783]
latino
##dro
winding
nudged
ft
wires
rhine
plight
tips
piano
rebel
pharmacy
antoine
##bba
damage
stored
inched
dvd
dade
documents
lawn
wilson
augustine
statesman
##武
[unused259]
cumberland
ड
chief
li
##ud
##uga
soho
ric
ˡ
forcefully
##tlan
orientation
fins
address
zoom
cleanup
liberty
##dice
skeptical
socrates
greatly
relying
##market
tribe
video
driven
##uously
12th
gestapo
righteous
heaven
householder
##spar
1834
dressing
spoil
aaa
1910
ki
ך
sect
distributions
##uis
defiant
##ₜ
macdonald
reply
curry
spaces
graph
rovers
barangay
ச
##eur
ka
##ocks
[unused802]
feminist
##selle
boer
##dding
[unused490]
[unused278]
beaumont
unitarian
monetary
miniatures
dublin
downstream
lori
##icient
fascinated
decoration
ı
huddled
grins
oblivion
job
pointing
##ס
dances
termed
ci
##uted
monstrous
##esa
haryana
salvatore
1819
[unused30]
##tted
rs
shipyard
oils
nations
foley
bids
backup
cambridgeshire
drying
[unused577]
tied
dipping
malabar
secretary
halloween
##41
[unused217]
##ride
carver
loop
recalling
[unused702]
##ap
tulsa
ambitious
fences
draper
abbess
cultivated
和
shakespeare
##inal
modern
accused
theme
soto
grammar
mandates
clans
士
cheyenne
compilations
sampson
script
caledonia
##ose
cultural
honours
dev
fanny
##cheng
surviving
christian
##ell
essential
extent
assassination
##nden
outpost
##atory
investments
hellenic
scrambling
ethiopian
glands
oklahoma
lviv
marek
emerge
kazakhstan
##gno
recognised
warrior
marble
bullets
##hari
##kk
popcorn
craving
##borough
街
authentication
tatar
ee
##ffa
##iography
dl
howling
alabama
victorian
##民
muddy
cunning
primal
threatening
renault
##ipe
waterway
rhyme
improvements
##▪
##khov
bilateral
ol
##mare
##owe
soared
##は
##20
retaliation
transparent
wetlands
alert
gaps
##izations
leaking
twitching
protestant
firefighters
mobilization
stair
occupations
jihad
barrie
marriage
nsa
democratic
catholic
cortes
##ə
scorpion
divorce
franks
slamming
1712
stranger
splinter
##ன
rites
##vius
reduced
fireworks
helpful
insisting
dungeon
glover
##rians
tentacles
beer
bath
rosenberg
gael
llc
coupe
cemeteries
superiors
ea
[unused80]
ernesto
voyager
meteorological
[unused867]
occurrences
resort
bukit
##raya
##ular
[unused358]
ukrainian
[unused940]
sections
well
quake
princess
evaluated
competent
##tu
##gers
##ail
vapor
penetrating
plainly
prolific
dashboard
博
flint
monde
authoritarian
kelsey
##rned
332
discontinued
settler
##bant
gall
foolish
advertisements
##gard
worrying
businesses
peeling
absurd
differed
##tlement
penalties
memorials
wince
till
##inus
kei
ধ
chosen
##iously
coasts
1840
agent
breathed
dancers
##70
antennae
⟩
absorb
fibers
shelton
simultaneously
cote
##ರ
子
deliberately
commentator
depicts
え
##uddin
petroleum
discomfort
warehouses
bio
settled
radiated
conferences
##chaft
elias
##ode
##zow
##oo
axial
constructive
peach
massif
crossover
cited
negotiation
ʷ
investment
sandy
fused
locus
##edly
sic
industrial
instructors
clumsy
mail
baldwin
##fl
uno
social
##mined
##dot
owned
servicing
conditions
fingernails
jennings
informant
##utnant
##ola
acquaintances
delilah
soothe
kilometers
hides
sept
1770
frederick
grande
##cie
dominate
regain
expertise
porch
stein
##ᶠ
[unused763]
rural
##guide
##fication
##rous
strike
mother
bicycles
–
##を
##ggy
smash
[unused332]
haydn
denied
shocked
dracula
##lad
married
several
liver
##lal
depression
shropshire
camilla
generating
dense
altering
foundation
pending
resulting
receives
hodge
[unused696]
endorsed
##ulum
outskirts
eva
shortlisted
##kha
attitudes
stubble
subtropical
shotgun
kant
farther
curse
ottawa
გ
cartridge
vacuum
striking
poetry
holy
pittsburgh
crypt
frustrated
##uru
montenegro
caracas
parallels
##hopper
reform
barak
##糹
nova
punished
floats
female
ψ
pri
##logist
##ann
##lde
##sal
hayes
fishermen
belarusian
##¹
hospital
insist
colchester
##hay
##idium
cpi
oddly
accumulation
scenario
##ently
charities
##sian
gov
internal
publishers
[unused768]
[unused152]
mon
##nka
freedoms
[unused344]
capturing
##ght
##lder
runaway
austrians
due
spend
rebecca
##tower
##tai
chesterfield
consortium
1603
1851
sensed
ब
78
##ciful
dogg
gap
dazed
saline
mono
enlarged
keenan
##mation
reef
examination
chase
envisioned
##bbed
impression
integration
indifference
counselor
[unused227]
##lean
costs
[unused209]
captive
convict
burkina
[unused108]
##bl
mukherjee
##swick
[unused987]
351
##ʎ
license
##₀
conservatives
##elled
##sei
comments
##ւ
huge
##feit
dick
annabelle
inappropriate
nelson
viaduct
persia
characterized
killers
grasses
goats
derivation
screaming
husky
roach
##bag
goodwill
cardiovascular
1927
gauge
undertaking
colliery
relegated
ud
enjoyable
misunderstood
vr
sand
opener
plaques
excited
removal
basque
snakes
55th
chevy
series
hiring
bitch
locally
dmitry
armenian
rhetoric
hesitantly
##19
kuwait
highway
bouts
clearer
lasted
##lly
artifact
listed
tiles
kitchens
emery
daggers
##yn
appears
polytechnic
tagged
875
##ल
turnout
##uze
gender
bubbles
arroyo
leading
somebody
juvenile
##ama
turnbull
intimidating
occasional
madame
plastic
anthropology
push
stemming
revival
campus
innocence
tho
ama
##ip
respectable
##post
stefano
comparisons
justin
[unused681]
offers
glamorgan
colonial
badminton
neurological
casualty
sugarcane
bounce
tempted
merged
一
normally
noah
martial
comrade
mirror
footprints
colin
upton
mil
会
distraught
leftist
##raf
owe
embroidery
marcel
heller
##hwa
chimed
vase
followed
currency
##rol
analyzing
[unused623]
1923
earth
##gas
meyer
##hore
##words
2018
indigenous
climb
await
persistence
wheelbase
button
hendricks
[unused374]
observe
219
squinting
gu
shaken
##ffe
outspoken
englishman
personality
reinstated
distribute
1788
##rade
barefoot
##藤
sorbonne
lok
assassins
##ifiers
grandmother
operatives
##dation
##ppet
##ை
overseeing
toes
dani
stares
##eria
flying
[unused574]
rendition
faerie
ن
##れ
##gui
rhone
plateau
bought
##shan
##keeper
sunset
maddy
vain
bringing
escorting
butte
garden
hollis
sides
nazis
##fish
##boat
##oys
ph
thinking
luxury
frazier
ligament
pottery
wheelchair
delay
westminster
##uc
##aus
posterior
boar
tilted
fields
ore
coleman
amend
processors
arrests
fitted
ensured
208
##寺
sleeper
[unused851]
walk
sons
flesh
##oc
liberals
##elo
##rith
cuckoo
caribbean
bred
##kan
interesting
manners
karin
##bered
syndrome
senses
andrew
##kers
klan
este
optimism
filmmaking
291
relaxation
cow
ben
accountability
lunch
##ा
went
astonishment
royalties
rai
##drick
ヘ
rather
teen
arrives
greensboro
passport
az
##sible
tactic
[unused746]
unsuccessfully
wta
ɔ
hysterical
organisations
moore
ace
wilde
monopoly
[unused726]
actual
forming
magazines
monasteries
##cous
chick
banker
nickelodeon
##dicated
campuses
grassland
nightmare
sickness
rosario
dinamo
wendell
cerebral
##pole
##ore
minh
##ega
awarded
hannah
compression
pan
55
##egorical
freestyle
##air
##·
designing
costumes
musician
tending
returning
##西
##nga
char
projects
michigan
##turing
let
##nched
##trust
42
route
aus
lullaby
vice
[unused41]
harmful
egg
elevation
jury
summons
gertrude
oz
orbital
manifesto
taiwanese
##side
phrases
##od
outburst
manufacture
titles
##″
##lini
strait
##lth
reeling
waited
furious
##lr
##atic
longest
evade
dedicated
1899
##য
battalions
semifinal
##lit
wired
dangling
##yria
frescoes
rescuing
ড
tend
>
surround
##之
higgins
nausea
huang
plump
1852
##aver
quality
shipment
uttar
devastating
[unused748]
##fare
upbeat
##kovsky
repeal
ramos
fails
##zaki
denote
sp
castile
holt
maia
boasts
mama
submarine
flanking
continent
entirely
##rium
ashley
henderson
##チ
bono
janice
swallowing
implant
meath
finals
##sg
##kind
##樹
[unused91]
jets
villiers
##shaft
##trix
developmental
linguistics
##⊕
[unused292]
##kko
##zzy
##scribe
serum
hoover
##endez
demographics
2500
physicist
##hunter
ratios
pontiac
##長
rochdale
mcconnell
unless
doc
pays
engined
##´s
slits
reappeared
shape
unknown
##元
pained
[unused421]
competitor
castles
devils
yesterday
disbelief
##ily
ripped
canopy
genuinely
noir
super
embarrassing
deleted
freddy
hunched
kowalski
easter
sportsman
gee
##vira
problematic
barriers
ვ
graduation
mule
bookstore
discouraged
°c
camped
##tya
retrieved
elusive
alongside
ッ
mrna
hermes
##ך
chalk
ortiz
intentional
keeping
1898
didn
buffer
ranged
##right
dina
princes
saliva
starts
##meral
clinton
mandarin
sibling
amy
implements
##л
surge
deteriorated
##এ
boris
petra
bows
peptide
exchanged
picture
obstruction
pena
##pose
[unused434]
gwen
ed
joshi
maturity
rhea
obeyed
dismissing
bearer
cuff
falling
correlation
sweetie
casual
ounce
slicing
basal
encompassed
proficient
crucial
##zzi
disturb
316
mated
parent
wall
damien
##sca
bottles
ipod
dalai
sweeping
##lord
630
straighten
intervening
topping
spine
##hesis
towing
reforms
cock
pm
slogan
luce
boyer
##oll
improvised
##ulent
##ص
##lu
highland
pep
##kot
bowman
administering
##ncy
centered
ghana
mutiny
kala
masonry
results
delaney
[unused739]
lurched
barracks
ashok
muslims
glad
crossings
query
##mide
##rangle
##48
burnham
words
cool
lockheed
encountered
philippine
##sume
ℝ
[unused298]
##aya
deux
##wk
##ope
宇
71
wi
holocaust
eagerly
##khand
guitarists
[unused121]
##wise
silas
mundo
##उ
talk
900
##dina
cologne
1560
drift
headlining
stool
##ab
archaeology
divisional
needles
aero
fools
verona
ballard
stance
##kovich
suspicions
##bians
##ট
migratory
[unused689]
morgan
##cum
##ulate
execute
estranged
##£
specialising
mccoy
₁
##at
melting
jericho
##rata
infused
franklin
1500
revolution
¡
lyricist
##mple
spectator
organizer
images
confused
##while
英
cornice
approved
float
renegade
afi
urgency
##weig
norfolk
[unused462]
friendly
木
box
knocking
hometown
navarro
266
jacobite
ticked
tess
[unused970]
lennox
scans
##ally
cluster
trends
##tman
clemens
##tique
##rial
kunst
otago
hanna
##linger
##ち
grease
fingertips
dirt
wichita
friction
alt
##hort
inflicted
moor
balloon
drove
##ram
abigail
pains
##trick
broadly
insults
gemini
proximity
unite
##oder
as
acres
spending
[unused471]
instinct
##jia
[unused523]
dial
##cot
scouting
covert
governing
tyrol
labeling
lair
dutch
labels
locality
patients
crazy
emptied
berger
contenders
1655
kobayashi
##林
prosecution
1862
paid
##d
grimly
[unused637]
champaign
telecom
fiddle
##inho
galveston
today
##gis
##lines
[unused9]
shortly
commemorate
flats
vision
##non
##flict
archdeacon
##fighting
1954
##ages
mart
priority
囗
[unused348]
##nco
adopting
[unused611]
holden
adulthood
my
crows
##rella
generates
maintains
##ward
geography
nominate
proud
##lot
[unused143]
johns
ufc
deserve
classmates
cavalry
midfielder
fielded
citations
aryan
salt
maharashtra
##shi
elaborate
##gat
contradictory
bennett
selfish
conscription
classrooms
aquarium
seminole
info
meek
coiled
[unused486]
belarus
custer
##pone
##־
shine
consensus
wearing
defenders
lever
arenas
cord
##stad
[unused978]
yellowish
henrietta
chips
[unused954]
bombers
meter
主
[unused572]
italian
doubted
bandits
##ese
hypothesis
sperm
##dale
##omp
declared
privateer
pandit
[unused311]
scripts
241
medley
magnus
norwood
yank
##beat
wonder
horizons
recommend
federer
ronin
quietly
##cal
rendered
angelica
fr
parliamentary
##bus
ritual
wrath
tracing
hanged
##np
joking
accompaniment
lyle
whaling
club
##‿
overcoming
##zziness
##city
describes
educator
1926
women
tate
stolen
routing
ա
mocking
##etz
fatal
##ior
southeast
intrinsic
directional
##ᴮ
朝
object
destined
delicately
hatch
commonwealth
contracted
ى
##9
triple
verge
porcelain
opening
readers
worsened
scattered
diamond
tobias
josef
pup
toss
##andra
crashes
[unused202]
nichols
##や
ₓ
schools
anton
relocation
mole
dragged
bombings
世
musica
##66
manuscript
vodka
ø
[unused410]
##gut
mathematics
wyatt
[unused151]
warm
lau
tessa
##uses
##ᅵ
jupiter
islamabad
nights
foam
1947
worcestershire
partially
spear
legally
neighborhoods
salisbury
modulation
amplifier
delivery
mahmud
proper
silvery
package
##tek
vidhan
~
##anum
ᵈ
flipped
neighbor
idols
sculpture
ferries
chapter
follow
curiously
bounty
glistening
automation
cleaner
konstantin
tents
kong
ni
allegiance
##đ
[unused445]
##cles
##isen
conflicts
deadly
##ille
奈
benefits
bequeathed
ongoing
rises
bestowed
patterson
saint
##laze
₎
187
chairs
##rgh
##person
illustrating
##we
rpm
slavic
##raine
many
rao
correctional
renaming
##rh
selena
marquez
thanking
月
cervical
##laus
tigers
analogous
sanjay
notre
sunk
##saurus
supermarket
oxford
##и
superb
##ocene
##un
hampton
revenge
protector
##ctions
870
##bone
category
[unused431]
quiet
marylebone
eyelids
mayo
surgery
since
churning
consumers
governorate
##hee
hesitant
werewolf
beatty
puppets
strategically
ruiz
formerly
exchanging
##9th
hartley
nation
nbl
po
shady
bitten
[unused340]
##gp
donnie
shelf
species
burst
gloucester
142
specialised
##standing
listen
lu
##mour
nagar
aforementioned
[unused289]
##‰
legislation
expeditions
photographed
ashes
convey
##mis
motioned
furry
paralysis
link
nuns
scholars
ᅧ
edges
maori
mean
expo
##ger
sophie
capitals
##wana
##vinsky
superiority
sedimentary
masovian
ม
daughter
joked
terms
anglican
crusaders
zionist
rhino
京
rector
ass
borneo
arena
triggering
amidst
ministers
[unused125]
nearer
ron
davey
cl
mikhail
[unused747]
reputation
separation
##ser
croft
edition
coincidence
##oids
powerhouse
particularly
exams
indochina
vhf
##rae
starving
perpetual
##icon
##47
composure
[unused249]
##gos
homicide
orchestrated
##orus
##written
mathew
mafia
keynes
sponsorship
91
##rys
diablo
1772
featherweight
slumped
##ren
annals
leukemia
inauguration
withstand
linda
stucco
##ask
rated
exodus
giuseppe
fortune
nikita
coup
rat
##rug
##@
sa
stills
vols
humanoid
argues
assent
communes
extended
inspiring
thighs
worst
reflection
consume
liam
robotics
adolescents
trains
causeway
mahogany
acting
ousted
vedic
##mond
countryside
glacial
##ien
aided
hats
[unused875]
##nst
editing
sega
##tream
jasmine
reverted
##olis
referring
intermittent
##$
endurance
##pad
mike
cancer
##nted
donors
karl
##ink
##dden
legion
##mist
make
arms
prussia
atlanta
speeches
pain
##sar
documentary
granville
retains
##oat
gravitational
『
##ful
britney
those
adjustable
barbecue
briefly
##child
reproduce
waiter
cake
##★
##fy
##dara
jian
strengthening
ze
##lum
nelly
effortlessly
470
offered
bathurst
baker
horrors
belgrade
##che
##ique
verses
estadio
[unused317]
dimensional
93
[unused256]
skill
##uka
1909
ling
disney
sundance
urbana
[unused419]
review
riots
bury
parentheses
estrada
uphold
##ber
##n
仮
shafts
##sea
british
pairs
plot
succeeds
##mo
thorne
refrigerator
##less
thailand
demi
##cens
firstly
##gano
revisions
[unused115]
baptiste
squealed
##香
sexual
##ovic
excuse
noel
tajikistan
##notes
##otte
folds
christophe
##fers
monmouth
bail
ray
太
fooled
lewis
existence
implicated
numerous
awakening
pissed
##eyer
attested
志
##合
coherent
medications
transmitted
assumption
blindly
jun
yerevan
dominance
movement
spur
rescued
[unused881]
##hoe
winger
sucks
publish
offensive
proponents
⊆
load
croix
##orum
annapolis
ा
remove
carries
[unused485]
##werk
##ban
##ש
slippery
missy
deciduous
spitting
antonio
モ
##aris
##hop
genome
speak
knox
scriptures
greaves
infection
cale
containment
vietnamese
transport
storey
lowell
plastered
##idon
##ajan
ease
##ா
lava
stench
twigs
strapped
##lwyn
injured
magnesium
clench
brand
（
suburb
curled
drops
##iidae
coloured
##ott
jurgen
horsemen
##pati
goldstein
cardinal
##dic
screenwriter
##das
pension
damaging
taxpayer
1861
party
maid
##tling
yang
roofs
##river
##tracted
1540
##agger
fix
suites
##ה
flourishing
festivities
[unused66]
##anda
transplant
##meister
stadium
nightclub
pl
register
skyla
favorite
joined
characteristics
205
##fort
convertible
steamed
insulting
##lita
場
terminating
##ℓ
benson
sprang
dow
renovated
##gal
##pol
##ife
xbox
##feld
gastropod
##ues
september
park
breath
viewed
沢
##ssa
been
ideas
cope
throws
penned
covering
josie
invoked
angled
analyst
sympathy
suzanne
going
reliable
connectivity
##ball
##ecin
paler
knights
reasons
##hide
chattanooga
fly
waters
honesty
##num
##₊
##空
password
lehman
##ach
chapman
forces
couple
##hus
reasonably
voiced
1622
avoiding
classroom
greenfield
comparable
##kawa
##lent
consisted
##ben
breeders
assignment
exports
##gee
happiness
distributing
chong
experience
somehow
dunlop
##33
estates
##park
charge
49
spacecraft
##oke
emigration
fuji
##რ
[unused942]
##ew
hiv
##grate
drone
constitution
terrace
sergey
acute
324
johannes
livingstone
enjoyment
boost
maxim
saharan
chatham
herself
loudly
silicon
##bius
poisoning
calculated
accreditation
dora
saxony
fai
relationships
lenny
invented
##neck
enjoyed
[unused222]
stout
[unused787]
deputies
ratio
##shu
moments
1984
##sse
redevelopment
numerical
thom
uncomfortable
admiration
1732
##region
compliment
desperately
dignitaries
na
least
##lick
municipalities
pitchers
safely
gracie
courtroom
[unused97]
1708
seneca
##bots
northamptonshire
rodrigo
##berry
curiosity
battled
disqualification
tells
copied
origin
staunch
‚
##lk
##mans
weddings
ns
maine
succumbed
cancellation
##riding
##真
sinking
aces
bonuses
resembling
[unused890]
pursue
##葉
##食
1787
designate
colleague
swimmers
binoculars
joel
manuscripts
##cea
wait
dodd
disdain
us
##mering
repertoire
##haus
##0s
##出
overs
##⁷
##terol
battista
weakness
marguerite
[unused266]
1995
male
##eed
spawned
adjutant
octopus
##morphic
##our
perry
responding
pol
court
520
##tical
brussels
navigator
creativity
mecca
poppy
##clave
spin
blows
##imate
subterranean
herald
central
partnered
urgently
##ere
##shin
##po
anxiety
waterfalls
utmost
undertaker
jules
bungalow
274
relief
cum
mas
inadvertently
[SEP]
rue
sex
aide
skylar
aim
marginal
[unused844]
##э
conjecture
fled
scraping
flashbacks
malicious
regime
estimated
257
liquidation
artisans
democrat
fungi
humid
chose
ⱼ
mai
bracing
detained
collapses
holiday
bodily
martin
boxer
ulysses
##net
fractured
bucks
sg
grady
haul
alexia
##ora
##orth
jar
argentine
luminous
##lub
walnut
##²
craters
winnipeg
del
revolves
orleans
cautious
prompting
##ult
asserted
scares
suitcase
platt
accessories
67
important
##port
##ex
piled
##mpton
copper
kari
[unused429]
republished
##eet
proprietary
constellation
continuity
extend
usual
##chi
shoot
##books
shoved
stacy
ensemble
hess
##ʁ
cecilia
hid
centimetres
よ
fulfilling
smaller
nu
ridden
tonga
##ador
palace
##rgeon
detention
##rge
ghetto
arrow
##bies
##8th
durga
community
bane
mammal
supplemental
maggie
backward
conservatoire
hymn
bits
##त
##uating
##kali
з
fatima
[unused139]
significantly
ruins
uninhabited
formats
amnesia
ping
:
1731
incorporates
rolling
conversation
省
##odes
cooled
boating
[unused820]
##ᅯ
butler
salon
abdullah
maternity
##⺩
asean
hoffman
growth
stump
knocked
bk
targeting
respects
##།
##ง
##ral
retrieve
sire
fill
presidency
anarchist
##pathy
pp
recently
berkshire
paternal
335
##bei
fisted
firearm
franco
management
ŋ
programmer
fighting
־
##pres
oxygen
regiment
##bert
identification
xii
292
ricardo
diverted
1718
naturalized
christoph
1629
inherent
##ᄊ
exploitation
tehran
∇
correction
tanker
pennsylvania
devon
regarding
##gni
##oco
##burgh
nobility
##hara
cliffs
##rz
##vil
frantically
distribution
forgive
differ
##cic
##with
##ہ
rib
infections
disc
decrease
sharpened
[unused79]
##genesis
offenders
avila
[unused550]
fifties
hymns
##aud
racial
writing
riley
lbs
erroneously
mcdonald
grazed
version
advocating
curator
detailed
form
sanctioned
definitions
shrubs
parrot
kenji
∅
videos
container
suffered
glass
platform
cockpit
suffolk
informs
wasp
415
sonya
##nett
1980
##bas
lizard
superstar
burmese
singled
pipes
massage
##lin
presidents
##rkin
thereby
appointed
72
interrupt
witty
carmine
screening
##wang
jennifer
confederacy
##ᄇ
wash
machine
ニ
skills
craft
morton
def
lecturer
emerson
narratives
attractions
reminded
##uo
militants
luciano
femme
covent
vicki
secondly
meadow
volunteered
isle
##sty
edward
##ference
caf
raj
collingwood
runner
baden
bloc
pablo
##tters
senior
entrances
archival
##ь
crete
c2
norma
skinned
steak
marseille
langley
广
magnum
exhausted
scarlet
airplanes
badly
sequential
rappers
announcer
muttered
rushing
[unused416]
ل
becky
zen
1690
overview
bruno
fancy
funded
##crow
##部
coffee
tribute
##bt
bench
thatcher
ding
swapped
##ced
і
outsider
lee
endeavor
[unused512]
##enter
sheen
merchandise
actresses
requiring
biology
1896
currents
е
atp
etymology
sarah
##mb
##llie
##ŋ
preaching
dubbed
gains
##ayton
##漢
[unused647]
ma
priest
tossed
sandstone
##lman
baghdad
commander
knock
certificates
5000
1831
secretaries
musically
investigate
##mon
bowler
you
disabilities
adds
將
##ume
constituency
wen
boone
##nut
31st
volleyball
##ingly
##gina
##movable
judge
##islaus
blush
subsidiaries
rake
43
gable
composing
##tm
[unused262]
1940s
descending
pearl
decreases
saxophone
prayed
blazed
1745
distinctive
roast
tanner
1704
warlock
unreasonable
÷
reviewing
tune
wan
aggressively
##stein
czech
bargaining
ே
„
1858
arbitrary
papa
atop
##most
dispersal
modeled
armenians
surprising
unidentified
rooms
tape
predatory
districts
peterson
propeller
supermarkets
francesco
sash
mussolini
tackle
yen
macbeth
♠
qualifiers
dock
roberts
pad
inventor
assertion
lighted
respiratory
preview
megan
juliette
periphery
browning
die
ascension
saxon
albany
millennia
##ハ
##skin
crawl
gunner
baird
mcguire
slacks
somali
chet
incoming
milwaukee
##ndo
##abia
malacca
judith
rayon
flirting
neighbourhoods
related
fascination
sumatra
##の
garage
platinum
seasons
likelihood
deposit
vaguely
##nova
collaborating
##hui
syracuse
1942
##eration
concert
fixing
reelected
norris
unlikely
miserable
defamation
boundaries
anatomy
detached
##kowski
dragons
imitation
lindsey
##quin
photographs
eponymous
campbell
methodology
nuevo
##urbed
rejected
cottages
wink
##cliffe
shortages
##ker
pendant
stakeholders
salman
soap
patriots
wrists
##ory
gym
predominantly
1777
##mas
allah
vernon
##balls
preservation
classical
##pc
graders
##kker
relinquished
specialist
stammered
##北
##tus
ⁱ
predecessor
ideally
vinci
wilmington
[unused650]
##ets
##logram
ii
negligence
herbert
scrape
stiffened
ب
##as
drummer
102
empowerment
migrating
saving
evie
benz
says
##gned
historical
199
##gm
##rger
##lone
310
##lie
bean
tradition
pilgrims
user
roth
campeonato
surf
filtered
##曲
voters
hilly
breathless
coded
bill
mystery
clients
[unused598]
pereira
viscount
##rigue
labs
##ya
##ssee
pouring
nicole
bi
[unused483]
throughout
hungry
impact
playground
intro
พ
##ammed
slump
devastation
jenna
nigerian
sant
##uts
elects
state
キ
aunt
wickets
ions
mcgrath
##oca
differs
[unused622]
course
chances
relatively
clay
rev
barrel
taluka
detachment
₉
[unused722]
cub
morley
cairo
organist
acc
stables
outlaw
insight
impress
seemingly
furiously
##ein
melbourne
bankruptcy
revolutionaries
##ragan
2016
3rd
repulsed
boasted
400
chuckles
##ographic
trey
dickens
##lem
263
chases
marge
repeat
olive
hurried
##base
nocturnal
aspect
##29
thompson
##pes
ₘ
##〉
##than
gb
revelations
karachi
call
sees
goals
##ska
discover
onion
incorrectly
ny
##zawa
##aea
magnate
doctoral
sincere
ₑ
preserved
57
motionless
vamp
མ
##ほ
transformation
memorial
blew
[unused525]
characteristic
##ings
visually
justine
diaz
##arty
exhibitions
claus
meredith
ltd
##mbe
resisting
decomposition
bureau
that
solve
##logue
roofed
arrested
wonderful
necks
slices
manning
##大
##twined
enrique
##aw
sorry
periods
sample
##puri
schneider
273
gig
ibm
transvaal
[unused376]
comrades
worthy
parks
token
downloads
mongol
##hart
##張
brandt
[unused260]
##sfield
sensors
procedures
##asian
goalscorer
cubs
##vered
rendering
orphan
##pw
##moral
byrd
upwards
sleeves
month
##vot
rebuilding
differing
commotion
alphabet
cola
berth
willis
allie
columns
prairie
burlington
##ix
##eland
slaughter
bernstein
award
sears
u2
landing
connection
raf
##owed
##86
moral
hokkaido
overlooking
glared
##ℝ
log
moran
knowledge
strengthened
##州
##ː
195
fishes
subdivisions
demeanor
smiled
phrase
raider
##manship
guerra
[unused818]
verbal
hong
donaldson
##tick
sprung
ether
northwestern
expand
cheat
##awa
##tops
##avs
optical
intel
bose
stumbled
[unused207]
sim
##bu
##}
twisted
certificate
[unused806]
evident
inexperienced
portion
minimal
machinery
grotesque
indianapolis
##ie
group
tx
[unused22]
orion
##zquez
wing
##oit
ordering
franciscan
abstract
yuri
public
edit
vegetable
pamela
roberta
expectation
averages
##pee
##pac
duo
[unused423]
itunes
consequently
necessity
bony
charity
spare
praising
administration
[unused680]
##wal
suggestion
formidable
guangzhou
projectile
faculties
##河
axe
graphics
ɕ
except
lang
casey
pete
##quet
isla
fabio
軍
##tie
promises
rca
##³
discontent
vikings
conceptual
headwaters
[unused866]
albeit
diagonal
oaxaca
illustrated
perspectives
terre
##dict
zeppelin
memo
##古
ⁿ
##ɑ
lia
themes
ய
kitchen
##ffed
[unused948]
factories
##ntine
##orn
bing
[unused964]
baked
nicola
##ba
roger
dhabi
darcy
sas
1987
whoa
freddie
rms
[unused132]
wider
causes
javelin
weaving
paddle
ivo
trio
##bar
idaho
telangana
exceptional
constituted
mikey
##worth
theft
sulfur
sanitation
ր
invade
bubble
亻
significance
tax
simulations
constituent
fitch
[unused86]
accents
##ttering
controllers
blink
##vid
juno
cooper
overdose
##צ
television
##ovsky
protagonist
jenkins
1900s
scholar
nicholson
channel
[unused398]
wished
##hun
descend
yvonne
##←
arcade
climates
resource
dissolved
consumption
occasionally
baronet
catholicism
alternatives
##shire
dumont
acre
bust
warlord
southeastern
##rs
warn
candidacy
##yal
hesitation
1946
ᵏ
grandmaster
wrocław
bernardo
restroom
boulder
##osing
mid
watery
havana
rogue
##thes
##awan
last
messina
rodents
[unused872]
##青
##us
font
deacon
##shaw
stabilize
rider
communications
isabella
greek
graduated
differential
sleepy
connolly
disabled
##bino
reasonable
##not
pulmonary
commentators
without
trinity
lightweight
オ
glitter
vicinity
jewellery
shaded
anthologies
mistress
rectory
widowed
伊
##国
1849
alejandro
chow
##fixed
annual
##ania
chests
##lley
sichuan
##nk
##bled
whom
augusta
goddamn
asher
blankets
##tti
##udy
eliminated
ap
##ense
balkan
##cycle
##orestation
lightly
traditional
[unused147]
statistics
scandinavian
blah
claiming
distributor
##glers
complained
sewer
affirmative
marquess
##eville
##ケ
carleton
mini
franchise
extending
bret
plan
leith
46
clit
derives
simon
spectators
facing
##vard
##ᄋ
taught
germain
fiery
1695
scandinavia
researcher
shattered
##₃
tiled
etched
grenade
[unused372]
[unused294]
durable
nat
##ying
replies
##版
hunan
ᄇ
##き
bronze
engineers
[unused792]
guildford
[unused791]
technology
concentration
kenneth
[unused316]
setup
ridge
zebra
bit
##nesia
cowan
ng
##ව
comprise
conquer
quarterfinal
##xin
mustard
inherit
saturday
oboe
##wing
##rien
fragmented
winning
##peration
[unused406]
capped
mutants
##filtration
springs
†
##cheon
singers
banners
penetrated
deserts
cortex
##6
##橋
##issa
medallion
along
##ᵃ
slovakia
purposely
##uch
手
##go
luis
vegas
desmond
for
onwards
russia
kiran
tunisian
lab
##ville
∂
wolverine
guides
programming
seekers
##ati
partners
##wich
1887
chichester
gaius
##lle
##hue
jess
##rries
ア
caught
explorer
##rot
##igen
decide
##yla
##met
1760
common
კ
bricks
##omic
ethel
鈴
college
##usion
kingston
conjunction
##на
hounds
##walk
buds
inhaled
144
ں
dancer
casa
catalyst
erased
##oki
ο
willing
observatory
##nam
##ishly
yanked
##b
everything
##yde
##art
egypt
northeastern
loser
##quisite
graphic
##boro
sigh
transcript
forehead
passengers
ada
famously
clubs
schooner
females
deficiency
cantonese
dreamed
giggles
##eki
##ト
##oun
misses
flicker
133
savings
shi
##rling
sponsored
receivers
unanimous
would
sipping
reached
signal
workout
339
314
##enburg
[unused552]
[unused969]
auditory
changing
surrounds
##ppy
##lateral
agnes
pearson
crates
↑
gunnery
towed
##ep
israel
[unused991]
opposite
##ibar
mysteries
timely
島
tyrant
linguist
himself
colours
heap
otto
##dating
plunged
##uma
recycling
stars
chill
tbilisi
shea
surrey
ipad
unspoken
guardian
##scu
illegitimate
evidence
moderate
jong
huts
yemen
pubs
clinics
atomic
jeremiah
resume
previous
pillars
##kaya
coroner
##hold
cbc
##eche
neck
pasta
inclusion
##ion
latest
outlaws
149
heavenly
geese
contain
infectious
ᅲ
supports
##rds
accordingly
secure
crook
duets
snaps
do
##sitor
frontman
sang
eels
gangster
plain
cambrian
credits
oversaw
debris
ן
##een
##57
##gs
severn
met
darkened
bauer
##olf
352
encircled
beckett
commercially
periodicals
bottle
undermine
invasion
giants
ve
anxious
к
afternoons
majority
backgrounds
domination
victory
radha
medium
1875
##tock
doom
compressed
disciple
concluding
1742
walkers
##rine
⁻
justices
##28
legislators
##久
mascara
ろ
##chin
supernatural
decidedly
##ו
foe
[unused758]
jedi
callum
##ろ
speculative
th
尚
edna
##aling
threats
downloadable
##ito
thematic
nick
bathing
barn
##sling
shuddered
cordoba
##imeters
mortal
elegant
233
sentencing
strangers
##eptive
undergoes
mermaid
patient
crush
##ք
lil
##ভ
patti
##∗
shy
accomplished
##ella
rested
##vsky
flute
microwave
rihanna
##mum
income
nilsson
lin
##rise
moors
tortricidae
acquire
slides
cave
undertaken
sling
##vita
##igate
tank
leighton
₅
catching
[unused909]
##巿
portage
outfits
hurricane
needy
rotation
##に
blurted
aviator
buckinghamshire
186
##gingly
##м
proceedings
archer
punta
recommendations
##stones
kiev
ached
tb
##era
naked
wielding
producing
[unused60]
uniformly
advancement
erika
francoise
tail
expensive
compromise
archived
lump
competitions
##₁
diagram
##phile
corey
##oping
anson
raphael
discoveries
plunge
patented
reaches
1605
criminals
cradled
action
ebert
##her
amc
nave
comply
unconstitutional
##„
stuffing
spent
antarctic
##elli
thinner
ப
hers
saturn
amore
[unused965]
blank
[unused20]
kept
borders
boston
stretch
hussain
##yu
honoring
onboard
##rou
skirmish
lattice
appealing
[unused507]
vivo
artillery
caller
serra
circulating
silenced
genealogical
taste
comprising
##ར
receptions
shatter
forcing
immediate
venues
hugged
[unused632]
[unused123]
17th
endowed
1635
alpine
accolades
memoir
clive
thames
differentiate
ರ
fortunately
concealed
poster
involvement
tsar
disturbed
bag
hampshire
martian
sanitary
docks
##49
overlooked
importance
jumper
principal
accident
dissent
dwellers
bf
duct
##var
scored
endorsement
##cript
##井
remaining
##nable
influential
##rose
lifestyle
tyson
##23
headquarters
stairwell
##tner
sinai
exotic
computer
groove
wat
##iation
##₎
symmetrical
indices
farewell
despite
永
stones
necessitated
##sd
##gua
gala
sleeps
276
aristocracy
[...]
